<pad>	0
<unk>	0
<s>	0
</s>	0
▁t	-0
he	-1
▁a	-2
in	-3
▁the	-4
▁w	-5
▁s	-6
▁o	-7
re	-8
nd	-9
▁h	-10
er	-11
ou	-12
is	-13
▁b	-14
at	-15
ed	-16
▁m	-17
▁f	-18
it	-19
▁c	-20
en	-21
on	-22
▁of	-23
▁and	-24
▁to	-25
ing	-26
or	-27
▁d	-28
es	-29
▁th	-30
an	-31
ll	-32
ar	-33
▁p	-34
as	-35
▁in	-36
▁he	-37
▁l	-38
▁n	-39
om	-40
le	-41
▁ha	-42
▁be	-43
▁g	-44
▁I	-45
ic	-46
ot	-47
▁e	-48
▁wh	-49
▁“	-50
ow	-51
ut	-52
id	-53
im	-54
▁y	-55
se	-56
ve	-57
st	-58
ly	-59
▁re	-60
▁T	-61
▁that	-62
▁on	-63
ld	-64
ent	-65
ce	-66
▁you	-67
▁was	-68
gh	-69
▁his	-70
ion	-71
ith	-72
ay	-73
al	-74
▁with	-75
▁it	-76
et	-77
▁u	-78
ver	-79
ir	-80
ad	-81
ro	-82
▁as	-83
▁is	-84
ur	-85
▁for	-86
▁not	-87
▁A	-88
▁st	-89
ght	-90
▁we	-91
ri	-92
▁sa	-93
ch	-94
her	-95
▁had	-96
ct	-97
▁an	-98
▁The	-99
ill	-100
▁at	-101
▁him	-102
ain	-103
▁M	-104
▁se	-105
▁sh	-106
oo	-107
am	-108
▁H	-109
ich	-110
▁her	-111
ter	-112
ould	-113
▁me	-114
ke	-115
all	-116
▁S	-117
if	-118
ra	-119
ess	-120
.”	-121
▁which	-122
red	-123
▁de	-124
il	-125
▁so	-126
us	-127
▁fr	-128
▁have	-129
▁all	-130
▁P	-131
ore	-132
▁su	-133
▁C	-134
▁my	-135
▁said	-136
pe	-137
▁B	-138
▁by	-139
▁but	-140
▁con	-141
▁this	-142
ard	-143
th	-144
ck	-145
▁from	-146
▁or	-147
▁who	-148
qu	-149
▁W	-150
ight	-151
ome	-152
ge	-153
ul	-154
▁k	-155
▁r	-156
▁do	-157
▁v	-158
ble	-159
ant	-160
▁she	-161
▁whe	-162
▁ex	-163
and	-164
ust	-165
res	-166
ous	-167
pp	-168
,”	-169
▁man	-170
▁are	-171
ation	-172
em	-173
▁one	-174
▁they	-175
ers	-176
est	-177
ist	-178
nt	-179
▁ne	-180
sel	-181
▁up	-182
ound	-183
▁were	-184
▁al	-185
▁ch	-186
▁fe	-187
ast	-188
os	-189
▁li	-190
▁He	-191
ol	-192
very	-193
out	-194
▁will	-195
our	-196
▁no	-197
▁them	-198
▁G	-199
ate	-200
ind	-201
ong	-202
art	-203
▁wor	-204
▁F	-205
ap	-206
ood	-207
▁int	-208
un	-209
▁com	-210
▁there	-211
ak	-212
ie	-213
▁kn	-214
▁ar	-215
▁N	-216
▁D	-217
one	-218
um	-219
ort	-220
▁le	-221
?”	-222
self	-223
la	-224
▁ab	-225
ost	-226
▁their	-227
ig	-228
ther	-229
ect	-230
ame	-231
▁go	-232
ven	-233
▁And	-234
▁your	-235
op	-236
▁when	-237
▁L	-238
▁j	-239
▁out	-240
▁been	-241
▁ag	-242
▁would	-243
ive	-244
ook	-245
ough	-246
ide	-247
▁what	-248
au	-249
hed	-250
▁un	-251
ity	-252
te	-253
▁O	-254
reat	-255
▁pro	-256
ose	-257
ine	-258
own	-259
ell	-260
▁sp	-261
▁ro	-262
▁Th	-263
▁any	-264
ice	-265
▁E	-266
▁tr	-267
urn	-268
▁qu	-269
ount	-270
▁am	-271
ure	-272
itt	-273
▁R	-274
ep	-275
▁more	-276
▁fa	-277
ved	-278
▁other	-279
▁can	-280
li	-281
od	-282
ass	-283
▁if	-284
ber	-285
hing	-286
▁into	-287
nder	-288
ance	-289
▁then	-290
ake	-291
able	-292
!”	-293
ue	-294
▁tim	-295
▁pr	-296
pt	-297
ci	-298
▁some	-299
▁af	-300
▁im	-301
ag	-302
▁has	-303
ry	-304
▁V	-305
▁ad	-306
▁tw	-307
▁us	-308
▁dis	-309
ire	-310
▁en	-311
▁know	-312
cc	-313
▁could	-314
ars	-315
ove	-316
▁hand	-317
ite	-318
▁did	-319
▁say	-320
ang	-321
ree	-322
ab	-323
▁like	-324
▁now	-325
el	-326
▁J	-327
ought	-328
ence	-329
way	-330
other	-331
▁only	-332
▁see	-333
fore	-334
▁again	-335
ade	-336
ress	-337
ies	-338
▁br	-339
▁It	-340
ather	-341
are	-342
▁very	-343
ving	-344
wn	-345
▁look	-346
ment	-347
lo	-348
▁than	-349
ack	-350
tain	-351
hat	-352
▁over	-353
ated	-354
▁time	-355
▁about	-356
ink	-357
ud	-358
▁should	-359
▁But	-360
▁off	-361
▁too	-362
ish	-363
ile	-364
▁po	-365
▁day	-366
ked	-367
ary	-368
ier	-369
▁rep	-370
▁must	-371
▁‘	-372
per	-373
ond	-374
▁our	-375
ach	-376
ered	-377
▁cl	-378
▁gr	-379
--	-380
ally	-381
▁per	-382
▁Y	-383
age	-384
▁may	-385
▁rem	-386
ves	-387
ren	-388
ions	-389
▁fir	-390
ac	-391
▁himself	-392
right	-393
▁great	-394
ff	-395
ittle	-396
ings	-397
me	-398
▁every	-399
ward	-400
▁two	-401
▁under	-402
..	-403
ans	-404
▁ey	-405
▁long	-406
▁thr	-407
▁before	-408
ful	-409
▁sm	-410
▁pe	-411
led	-412
▁how	-413
▁_	-414
▁des	-415
ife	-416
▁pre	-417
▁little	-418
▁down	-419
▁good	-420
oll	-421
ced	-422
ness	-423
ious	-424
▁str	-425
ull	-426
ath	-427
hen	-428
ject	-429
▁old	-430
si	-431
ty	-432
ise	-433
▁beg	-434
▁arm	-435
ince	-436
▁count	-437
uch	-438
▁after	-439
▁bl	-440
▁first	-441
▁these	-442
▁seem	-443
▁spe	-444
old	-445
▁upon	-446
end	-447
▁thought	-448
▁men	-449
▁even	-450
▁such	-451
▁comp	-452
ign	-453
▁pl	-454
▁made	-455
▁where	-456
ave	-457
▁bec	-458
ft	-459
▁ra	-460
ried	-461
▁way	-462
▁part	-463
▁work	-464
▁own	-465
▁its	-466
ark	-467
▁pass	-468
▁shall	-469
ng	-470
▁cont	-471
▁went	-472
ouse	-473
ild	-474
▁In	-475
▁ob	-476
▁just	-477
ds	-478
▁fl	-479
ning	-480
rew	-481
▁came	-482
▁head	-483
▁let	-484
ted	-485
▁ent	-486
▁res	-487
ened	-488
▁eyes	-489
ip	-490
▁turn	-491
ne	-492
ick	-493
▁without	-494
▁(	-495
▁Ch	-496
▁come	-497
▁ret	-498
▁pla	-499
▁much	-500
▁gl	-501
ces	-502
▁sc	-503
▁imp	-504
▁back	-505
▁think	-506
▁acc	-507
▁still	-508
▁1	-509
ons	-510
ors	-511
we	-512
iz	-513
▁bet	-514
▁exp	-515
so	-516
read	-517
▁ind	-518
▁those	-519
omet	-520
ord	-521
▁well	-522
▁same	-523
▁here	-524
▁op	-525
▁att	-526
▁ap	-527
▁through	-528
▁away	-529
less	-530
iv	-531
ale	-532
▁might	-533
ied	-534
ase	-535
▁dist	-536
▁never	-537
ss	-538
▁She	-539
row	-540
▁bo	-541
ER	-542
▁house	-543
▁St	-544
ily	-545
▁comm	-546
▁pos	-547
▁Then	-548
sh	-549
ause	-550
▁cons	-551
▁father	-552
▁life	-553
▁car	-554
ean	-555
orm	-556
▁pres	-557
aking	-558
thing	-559
▁most	-560
les	-561
▁This	-562
▁somet	-563
▁Pr	-564
▁being	-565
▁young	-566
The	-567
▁happ	-568
▁call	-569
cess	-570
▁lo	-571
ener	-572
▁last	-573
▁nothing	-574
pect	-575
hy	-576
ared	-577
riend	-578
▁make	-579
ory	-580
oment	-581
▁moment	-582
▁ye	-583
▁ser	-584
▁saw	-585
▁K	-586
▁wr	-587
hes	-588
man	-589
air	-590
▁ord	-591
ere	-592
▁friend	-593
▁app	-594
▁"	-595
▁There	-596
▁wat	-597
▁room	-598
▁[	-599
▁door	-600
atter	-601
lied	-602
▁Pro	-603
▁form	-604
ations	-605
▁tell	-606
arm	-607
▁ter	-608
ertain	-609
▁left	-610
uten	-611
▁night	-612
▁la	-613
▁ke	-614
the	-615
▁took	-616
▁vo	-617
▁end	-618
▁another	-619
▁seemed	-620
▁bel	-621
▁right	-622
.’	-623
▁em	-624
▁face	-625
▁mar	-626
▁Al	-627
cy	-628
berg	-629
▁get	-630
▁appe	-631
▁though	-632
av	-633
iss	-634
ret	-635
▁once	-636
▁rec	-637
▁U	-638
ished	-639
▁found	-640
vent	-641
ever	-642
▁read	-643
ult	-644
▁light	-645
int	-646
ru	-647
amp	-648
▁take	-649
utenberg	-650
ict	-651
ollow	-652
iff	-653
▁return	-654
ction	-655
ling	-656
▁You	-657
ari	-658
igh	-659
▁heard	-660
ition	-661
ently	-662
▁They	-663
ner	-664
▁co	-665
▁te	-666
ople	-667
ef	-668
▁When	-669
oth	-670
▁child	-671
▁yet	-672
cl	-673
HA	-674
▁while	-675
ither	-676
▁At	-677
rib	-678
wards	-679
▁replied	-680
ix	-681
▁three	-682
▁sec	-683
▁looked	-684
▁asked	-685
ub	-686
TER	-687
ont	-688
▁wom	-689
▁inst	-690
og	-691
den	-692
ates	-693
▁pers	-694
▁whole	-695
alk	-696
lt	-697
▁inf	-698
▁Gutenberg	-699
▁people	-700
▁ple	-701
▁began	-702
ank	-703
▁sw	-704
▁ear	-705
▁Mr	-706
ierre	-707
▁add	-708
▁wa	-709
▁hands	-710
▁set	-711
▁place	-712
▁gener	-713
ian	-714
▁heart	-715
▁follow	-716
▁mind	-717
▁want	-718
▁round	-719
▁Pierre	-720
▁sl	-721
▁fell	-722
▁supp	-723
▁CHA	-724
▁whom	-725
ew	-726
▁something	-727
▁cor	-728
sw	-729
▁As	-730
lf	-731
▁side	-732
ited	-733
▁put	-734
ange	-735
PTER	-736
▁CHAPTER	-737
ways	-738
▁gra	-739
▁Project	-740
▁war	-741
ens	-742
cept	-743
▁feel	-744
ower	-745
▁wind	-746
▁seen	-747
ched	-748
▁love	-749
▁many	-750
▁Wh	-751
▁reg	-752
▁gi	-753
aught	-754
▁cr	-755
▁ref	-756
not	-757
You	-758
▁sil	-759
▁ac	-760
▁rest	-761
▁answ	-762
▁sur	-763
▁also	-764
▁dra	-765
▁hor	-766
▁give	-767
▁ass	-768
▁mor	-769
lic	-770
▁gu	-771
▁cour	-772
▁sub	-773
▁underst	-774
und	-775
ows	-776
▁What	-777
▁against	-778
ained	-779
▁conf	-780
▁Val	-781
▁each	-782
▁If	-783
sible	-784
ged	-785
uck	-786
oy	-787
▁beh	-788
▁new	-789
▁Fr	-790
▁always	-791
act	-792
▁sou	-793
ail	-794
What	-795
here	-796
▁ins	-797
▁So	-798
ired	-799
▁felt	-800
▁cap	-801
rist	-802
▁diff	-803
oke	-804
▁nat	-805
▁things	-806
▁sat	-807
ole	-808
most	-809
get	-810
cei	-811
ting	-812
▁soon	-813
ined	-814
ating	-815
ical	-816
iness	-817
▁We	-818
▁voice	-819
aken	-820
▁ever	-821
ody	-822
ised	-823
▁ev	-824
vers	-825
ense	-826
▁find	-827
▁On	-828
ace	-829
▁words	-830
▁having	-831
ls	-832
ph	-833
ief	-834
▁sle	-835
ute	-836
tle	-837
▁don	-838
▁near	-839
pped	-840
fect	-841
oub	-842
▁name	-843
▁certain	-844
ying	-845
▁thing	-846
ield	-847
▁dear	-848
ung	-849
▁Prince	-850
ial	-851
▁tre	-852
▁full	-853
ov	-854
▁going	-855
Yes	-856
anc	-857
ple	-858
▁son	-859
▁told	-860
▁pur	-861
▁world	-862
▁His	-863
▁quite	-864
▁inter	-865
▁because	-866
▁mother	-867
▁turned	-868
▁occ	-869
▁far	-870
ual	-871
up	-872
▁cle	-873
ween	-874
aps	-875
▁fo	-876
▁done	-877
▁To	-878
ides	-879
▁adv	-880
▁both	-881
▁death	-882
ern	-883
rench	-884
ister	-885
▁fall	-886
▁pleas	-887
▁tra	-888
▁God	-889
▁mon	-890
osed	-891
▁does	-892
xt	-893
▁That	-894
eth	-895
▁hum	-896
▁cried	-897
ross	-898
▁between	-899
▁vis	-900
▁hour	-901
uth	-902
▁mo	-903
arge	-904
▁For	-905
mb	-906
▁myself	-907
aring	-908
▁called	-909
And	-910
▁ele	-911
▁present	-912
▁ho	-913
▁ship	-914
ery	-915
▁order	-916
▁ide	-917
▁cannot	-918
▁disc	-919
▁No	-920
aut	-921
uc	-922
▁knew	-923
▁inc	-924
its	-925
selves	-926
▁word	-927
oud	-928
▁point	-929
▁nor	-930
▁che	-931
▁open	-932
aint	-933
▁morning	-934
ures	-935
aven	-936
ey	-937
▁act	-938
▁bed	-939
ressed	-940
▁kind	-941
▁contin	-942
ued	-943
▁French	-944
▁fore	-945
,’	-946
▁hel	-947
▁rel	-948
▁dr	-949
ason	-950
ps	-951
ug	-952
▁sort	-953
dden	-954
TM	-955
ene	-956
▁years	-957
lack	-958
arius	-959
ular	-960
▁Mad	-961
It	-962
ering	-963
▁stand	-964
▁gave	-965
▁mean	-966
▁hard	-967
ured	-968
▁sent	-969
▁dead	-970
▁sk	-971
▁Mor	-972
▁quest	-973
az	-974
▁general	-975
▁half	-976
▁exc	-977
▁GutenbergTM	-978
▁almost	-979
▁few	-980
▁ste	-981
▁understand	-982
▁care	-983
▁fam	-984
▁towards	-985
▁got	-986
ention	-987
▁among	-988
▁Marius	-989
▁bre	-990
▁matter	-991
II	-992
▁bar	-993
▁woman	-994
▁sudden	-995
owed	-996
ks	-997
ready	-998
▁An	-999
sha	-1000
▁herself	-1001
ins	-1002
▁home	-1003
oun	-1004
▁Mon	-1005
▁gir	-1006
▁poor	-1007
▁bro	-1008
▁imm	-1009
▁enem	-1010
▁passed	-1011
▁offic	-1012
▁anything	-1013
▁air	-1014
▁cur	-1015
atá	-1016
▁bat	-1017
▁four	-1018
ceived	-1019
▁dark	-1020
▁alone	-1021
▁*	-1022
▁behind	-1023
▁hon	-1024
▁army	-1025
▁stood	-1026
▁already	-1027
HE	-1028
Well	-1029
▁art	-1030
▁dire	-1031
▁person	-1032
▁better	-1033
▁Be	-1034
▁soul	-1035
▁small	-1036
▁sold	-1037
▁sun	-1038
▁thus	-1039
▁true	-1040
:—	-1041
▁speak	-1042
▁es	-1043
ream	-1044
▁thy	-1045
ron	-1046
ats	-1047
▁sim	-1048
Oh	-1049
▁lay	-1050
▁eff	-1051
▁sir	-1052
▁suff	-1053
▁dec	-1054
▁taken	-1055
▁aw	-1056
,—	-1057
ached	-1058
▁sound	-1059
...	-1060
▁el	-1061
▁arms	-1062
▁cop	-1063
▁law	-1064
atásha	-1065
▁others	-1066
▁since	-1067
▁prin	-1068
▁best	-1069
ets	-1070
00	-1071
ible	-1072
na	-1073
ctor	-1074
unt	-1075
▁days	-1076
▁belie	-1077
▁ground	-1078
▁serv	-1079
▁hear	-1080
▁Jean	-1081
haps	-1082
▁sing	-1083
▁wall	-1084
▁Natásha	-1085
used	-1086
▁All	-1087
▁inv	-1088
▁fire	-1089
▁help	-1090
ments	-1091
▁letter	-1092
ten	-1093
▁use	-1094
ately	-1095
men	-1096
gth	-1097
ents	-1098
▁sea	-1099
▁sign	-1100
▁dep	-1101
▁talk	-1102
als	-1103
▁fur	-1104
▁black	-1105
▁mis	-1106
▁min	-1107
ms	-1108
óv	-1109
irt	-1110
aster	-1111
▁whose	-1112
▁white	-1113
ains	-1114
ully	-1115
▁keep	-1116
."	-1117
▁lad	-1118
▁ph	-1119
lock	-1120
ants	-1121
aid	-1122
▁water	-1123
▁longer	-1124
▁Ar	-1125
▁red	-1126
▁hold	-1127
▁command	-1128
▁fear	-1129
▁Monte	-1130
▁Andrew	-1131
▁sleep	-1132
iting	-1133
risto	-1134
▁Cristo	-1135
▁enemy	-1136
▁power	-1137
ably	-1138
▁Vill	-1139
▁X	-1140
▁everything	-1141
akes	-1142
▁doub	-1143
▁def	-1144
▁ask	-1145
▁heaven	-1146
pl	-1147
▁Em	-1148
▁along	-1149
ized	-1150
▁beaut	-1151
jean	-1152
uring	-1153
illed	-1154
pr	-1155
▁less	-1156
▁Valjean	-1157
tte	-1158
▁Now	-1159
▁thir	-1160
▁saying	-1161
No	-1162
But	-1163
▁second	-1164
▁brought	-1165
rel	-1166
▁country	-1167
efort	-1168
▁high	-1169
▁till	-1170
that	-1171
▁wife	-1172
ès	-1173
▁Rost	-1174
▁however	-1175
▁Villefort	-1176
ater	-1177
edi	-1178
▁det	-1179
▁cond	-1180
aris	-1181
▁wish	-1182
▁opp	-1183
▁reason	-1184
tend	-1185
aughter	-1186
ceed	-1187
eed	-1188
ety	-1189
anger	-1190
ock	-1191
▁gent	-1192
ash	-1193
▁ir	-1194
▁With	-1195
fully	-1196
ution	-1197
▁fact	-1198
▁express	-1199
▁run	-1200
▁whether	-1201
ract	-1202
▁pol	-1203
▁sure	-1204
▁king	-1205
▁list	-1206
▁whale	-1207
▁real	-1208
ken	-1209
▁2	-1210
▁looking	-1211
laim	-1212
▁ill	-1213
▁given	-1214
by	-1215
▁prom	-1216
▁ext	-1217
orrow	-1218
▁step	-1219
▁need	-1220
▁themselves	-1221
▁unt	-1222
irc	-1223
gether	-1224
▁together	-1225
▁large	-1226
▁chief	-1227
▁aff	-1228
▁ang	-1229
▁hus	-1230
▁del	-1231
▁num	-1232
▁rather	-1233
▁enough	-1234
une	-1235
▁arri	-1236
▁abs	-1237
riage	-1238
land	-1239
▁obs	-1240
osette	-1241
day	-1242
fort	-1243
▁fin	-1244
▁How	-1245
▁dro	-1246
▁adm	-1247
tered	-1248
▁1.	-1249
iled	-1250
▁par	-1251
▁leave	-1252
▁question	-1253
▁evening	-1254
ided	-1255
undred	-1256
▁human	-1257
▁One	-1258
▁bes	-1259
▁returned	-1260
▁suddenly	-1261
ught	-1262
----	-1263
oney	-1264
▁dest	-1265
▁appro	-1266
▁sight	-1267
▁course	-1268
ison	-1269
▁Cosette	-1270
▁gentle	-1271
▁draw	-1272
iew	-1273
ude	-1274
_,	-1275
▁feet	-1276
▁bus	-1277
cious	-1278
imes	-1279
▁gone	-1280
▁table	-1281
▁answered	-1282
▁cal	-1283
rible	-1284
▁Rostóv	-1285
ts	-1286
▁My	-1287
▁hundred	-1288
che	-1289
ances	-1290
ities	-1291
owing	-1292
ching	-1293
▁next	-1294
▁ri	-1295
▁deep	-1296
▁appear	-1297
ousand	-1298
ident	-1299
ility	-1300
du	-1301
ec	-1302
▁mid	-1303
▁close	-1304
▁says	-1305
▁why	-1306
▁circ	-1307
lars	-1308
▁girl	-1309
▁thousand	-1310
ny	-1311
▁char	-1312
▁fight	-1313
▁thou	-1314
▁div	-1315
ement	-1316
▁entered	-1317
roy	-1318
▁body	-1319
▁sister	-1320
arn	-1321
▁gold	-1322
▁bra	-1323
▁blood	-1324
anglars	-1325
▁remem	-1326
▁works	-1327
▁live	-1328
▁lost	-1329
▁earth	-1330
▁Danglars	-1331
iers	-1332
▁case	-1333
▁land	-1334
▁Paris	-1335
cul	-1336
ool	-1337
▁hope	-1338
▁front	-1339
▁spoke	-1340
▁lau	-1341
▁move	-1342
▁either	-1343
▁pri	-1344
▁free	-1345
▁around	-1346
▁times	-1347
én	-1348
▁prov	-1349
ev	-1350
ussi	-1351
▁brother	-1352
▁ut	-1353
▁really	-1354
ee	-1355
▁ed	-1356
▁foot	-1357
erest	-1358
oc	-1359
▁strong	-1360
ax	-1361
▁expl	-1362
▁battle	-1363
EN	-1364
▁perhaps	-1365
▁within	-1366
ines	-1367
▁strange	-1368
▁wo	-1369
▁Count	-1370
▁opened	-1371
▁THE	-1372
▁begin	-1373
▁stre	-1374
bert	-1375
▁smile	-1376
ha	-1377
▁idea	-1378
▁doubt	-1379
▁dev	-1380
ane	-1381
▁road	-1382
▁.	-1383
ider	-1384
itted	-1385
▁expect	-1386
▁interest	-1387
ime	-1388
▁met	-1389
▁requ	-1390
▁hur	-1391
That	-1392
▁horse	-1393
cend	-1394
arch	-1395
▁ran	-1396
▁above	-1397
▁swe	-1398
▁believe	-1399
iter	-1400
▁eye	-1401
▁possible	-1402
gs	-1403
▁bur	-1404
▁short	-1405
▁state	-1406
ased	-1407
▁least	-1408
▁necess	-1409
He	-1410
ape	-1411
ages	-1412
▁clear	-1413
▁continued	-1414
▁joy	-1415
overed	-1416
▁daughter	-1417
▁dri	-1418
▁means	-1419
▁yourself	-1420
▁mist	-1421
ually	-1422
itting	-1423
▁spr	-1424
▁eas	-1425
▁become	-1426
▁indeed	-1427
▁money	-1428
ia	-1429
ising	-1430
▁hast	-1431
▁six	-1432
▁added	-1433
erv	-1434
peror	-1435
▁held	-1436
▁itself	-1437
enty	-1438
▁Nap	-1439
▁fort	-1440
ounded	-1441
▁hist	-1442
▁stra	-1443
ific	-1444
peri	-1445
▁trans	-1446
▁five	-1447
▁remained	-1448
▁happy	-1449
▁until	-1450
to	-1451
▁shout	-1452
▁sn	-1453
▁tou	-1454
fter	-1455
Th	-1456
you	-1457
▁start	-1458
▁manner	-1459
empt	-1460
ati	-1461
ert	-1462
ards	-1463
▁tri	-1464
▁wood	-1465
▁therefore	-1466
sess	-1467
▁gre	-1468
▁play	-1469
ror	-1470
▁Russi	-1471
▁else	-1472
let	-1473
▁ca	-1474
ians	-1475
▁elect	-1476
▁Madame	-1477
▁coming	-1478
mm	-1479
▁Alice	-1480
▁breat	-1481
▁became	-1482
▁view	-1483
▁nature	-1484
▁ru	-1485
Ah	-1486
ric	-1487
ushed	-1488
airs	-1489
▁“‘	-1490
▁copy	-1491
▁equ	-1492
▁children	-1493
oleon	-1494
▁prof	-1495
▁ve	-1496
erent	-1497
▁quick	-1498
▁esc	-1499
▁mad	-1500
▁col	-1501
▁meet	-1502
wh	-1503
ois	-1504
otion	-1505
▁window	-1506
▁field	-1507
sses	-1508
▁received	-1509
▁Ah	-1510
aving	-1511
▁Albert	-1512
kh	-1513
▁able	-1514
▁lead	-1515
of	-1516
band	-1517
▁pap	-1518
▁Eli	-1519
▁compan	-1520
▁possess	-1521
▁Napoleon	-1522
▁prop	-1523
▁exist	-1524
▁cou	-1525
▁Dant	-1526
▁conc	-1527
iful	-1528
br	-1529
use	-1530
▁rose	-1531
▁Morrel	-1532
▁subject	-1533
▁cut	-1534
▁hair	-1535
▁attack	-1536
ils	-1537
tern	-1538
▁Mos	-1539
▁dem	-1540
▁mil	-1541
▁truth	-1542
▁Gree	-1543
lysses	-1544
▁often	-1545
▁friends	-1546
arp	-1547
▁Eliz	-1548
▁creat	-1549
▁repe	-1550
anced	-1551
▁spir	-1552
▁family	-1553
▁god	-1554
oss	-1555
▁Rue	-1556
▁stren	-1557
▁cold	-1558
▁bring	-1559
▁Mary	-1560
▁appeared	-1561
de	-1562
ury	-1563
▁forth	-1564
▁direct	-1565
▁Emperor	-1566
king	-1567
▁mer	-1568
▁conv	-1569
cell	-1570
abeth	-1571
▁grand	-1572
sk	-1573
alked	-1574
▁husband	-1575
for	-1576
iling	-1577
vern	-1578
▁Elizabeth	-1579
rig	-1580
outh	-1581
ledge	-1582
▁force	-1583
▁Ulysses	-1584
▁bad	-1585
▁gard	-1586
▁Sh	-1587
▁Mosc	-1588
▁fellow	-1589
▁partic	-1590
▁bir	-1591
ster	-1592
▁answer	-1593
▁Not	-1594
▁stud	-1595
▁Dantès	-1596
▁3	-1597
▁cross	-1598
▁making	-1599
▁taking	-1600
▁instant	-1601
▁pay	-1602
▁shad	-1603
▁known	-1604
?’	-1605
der	-1606
que	-1607
▁low	-1608
▁sto	-1609
ronic	-1610
▁walk	-1611
head	-1612
▁pain	-1613
▁Moscow	-1614
▁ten	-1615
where	-1616
but	-1617
▁crow	-1618
▁Gre	-1619
▁women	-1620
crib	-1621
eren	-1622
▁prep	-1623
▁feeling	-1624
▁respect	-1625
ush	-1626
▁18	-1627
alth	-1628
▁ready	-1629
▁followed	-1630
▁terrible	-1631
AR	-1632
▁incl	-1633
▁master	-1634
▁yes	-1635
▁disp	-1636
▁consider	-1637
▁sad	-1638
▁unc	-1639
anged	-1640
▁imag	-1641
▁sever	-1642
▁jo	-1643
orn	-1644
▁desp	-1645
▁comple	-1646
omp	-1647
ices	-1648
▁fix	-1649
▁gaz	-1650
▁seems	-1651
▁remain	-1652
▁electronic	-1653
pend	-1654
room	-1655
rupt	-1656
▁used	-1657
▁perfect	-1658
ead	-1659
▁town	-1660
▁surpr	-1661
ging	-1662
aw	-1663
▁past	-1664
▁inqu	-1665
▁bu	-1666
▁const	-1667
▁plain	-1668
iet	-1669
My	-1670
iar	-1671
lem	-1672
▁Do	-1673
▁Un	-1674
body	-1675
ening	-1676
),	-1677
erm	-1678
▁fair	-1679
▁vi	-1680
▁flo	-1681
▁drew	-1682
▁quar	-1683
ney	-1684
▁eng	-1685
iously	-1686
▁cause	-1687
▁diffic	-1688
▁during	-1689
ogn	-1690
vel	-1691
▁object	-1692
▁mount	-1693
▁different	-1694
▁excell	-1695
IN	-1696
be	-1697
resh	-1698
ublic	-1699
▁kept	-1700
▁terms	-1701
cri	-1702
ops	-1703
.]	-1704
▁sit	-1705
orses	-1706
bs	-1707
▁Yes	-1708
▁mur	-1709
▁cat	-1710
▁cent	-1711
▁stay	-1712
▁soldiers	-1713
itude	-1714
▁evid	-1715
▁dream	-1716
▁visit	-1717
▁sometimes	-1718
▁OF	-1719
▁prison	-1720
ib	-1721
ining	-1722
▁agre	-1723
▁mere	-1724
entine	-1725
vert	-1726
▁squ	-1727
▁pray	-1728
▁reached	-1729
over	-1730
▁Eng	-1731
▁fle	-1732
form	-1733
▁post	-1734
▁placed	-1735
▁book	-1736
ollect	-1737
olas	-1738
▁strength	-1739
ump	-1740
▁Pl	-1741
▁impos	-1742
bed	-1743
ott	-1744
dle	-1745
isf	-1746
ues	-1747
▁ce	-1748
▁State	-1749
▁horses	-1750
Why	-1751
ative	-1752
▁beautiful	-1753
▁expression	-1754
▁gods	-1755
▁tro	-1756
▁acqu	-1757
_.	-1758
ize	-1759
▁di	-1760
▁Let	-1761
▁cry	-1762
▁mod	-1763
▁wonder	-1764
▁bene	-1765
icholas	-1766
▁raised	-1767
ze	-1768
ask	-1769
▁tor	-1770
▁These	-1771
iment	-1772
▁5	-1773
▁emb	-1774
▁hero	-1775
▁phil	-1776
How	-1777
ouble	-1778
▁stri	-1779
▁fine	-1780
laimed	-1781
▁following	-1782
ural	-1783
ceive	-1784
illes	-1785
▁number	-1786
▁age	-1787
▁From	-1788
ES	-1789
ots	-1790
▁vict	-1791
▁immedi	-1792
ym	-1793
▁une	-1794
▁Jove	-1795
bit	-1796
utes	-1797
▁wis	-1798
▁learn	-1799
▁convers	-1800
ger	-1801
lect	-1802
▁soci	-1803
▁month	-1804
▁except	-1805
osop	-1806
▁After	-1807
▁Valentine	-1808
▁twenty	-1809
▁several	-1810
▁business	-1811
inted	-1812
▁bit	-1813
▁tried	-1814
▁account	-1815
If	-1816
like	-1817
lled	-1818
▁gall	-1819
▁line	-1820
▁captain	-1821
ON	-1822
▁prob	-1823
▁Nicholas	-1824
pid	-1825
ancs	-1826
▁silence	-1827
gr	-1828
▁die	-1829
▁est	-1830
▁fright	-1831
▁Is	-1832
ires	-1833
▁glo	-1834
▁cast	-1835
▁accord	-1836
▁hardly	-1837
▁pleasure	-1838
▁position	-1839
▁heav	-1840
▁mouth	-1841
▁import	-1842
▁cra	-1843
▁francs	-1844
▁recogn	-1845
▁4	-1846
▁eat	-1847
▁mus	-1848
▁forg	-1849
▁secret	-1850
ones	-1851
▁laugh	-1852
appe	-1853
ieur	-1854
ote	-1855
▁contr	-1856
▁philosop	-1857
▁fif	-1858
apter	-1859
iced	-1860
▁Prin	-1861
side	-1862
inct	-1863
▁third	-1864
▁distrib	-1865
▁happened	-1866
!’	-1867
▁obser	-1868
ches	-1869
itions	-1870
▁Lu	-1871
▁justice	-1872
lish	-1873
▁boy	-1874
▁crowd	-1875
▁youth	-1876
iding	-1877
▁carried	-1878
▁charact	-1879
▁officer	-1880
▁carriage	-1881
aged	-1882
▁thee	-1883
onsieur	-1884
▁proper	-1885
▁Pe	-1886
énard	-1887
▁affect	-1888
▁garden	-1889
anz	-1890
▁peace	-1891
ination	-1892
▁certainly	-1893
ift	-1894
▁gri	-1895
▁led	-1896
▁doing	-1897
▁effect	-1898
▁drink	-1899
▁further	-1900
▁pale	-1901
▁doctor	-1902
▁laid	-1903
▁turning	-1904
▁Princess	-1905
▁exclaimed	-1906
▁Her	-1907
erous	-1908
▁comes	-1909
IS	-1910
umb	-1911
▁city	-1912
▁Found	-1913
▁danger	-1914
▁Thénard	-1915
▁opin	-1916
▁ought	-1917
,"	-1918
▁pie	-1919
▁fast	-1920
▁common	-1921
▁struck	-1922
▁Thus	-1923
ission	-1924
▁knowledge	-1925
We	-1926
▁hung	-1927
▁event	-1928
▁sitting	-1929
▁standing	-1930
▁Foundation	-1931
._	-1932
▁prot	-1933
▁seeing	-1934
▁particular	-1935
oon	-1936
▁remember	-1937
ina	-1938
amed	-1939
oly	-1940
▁By	-1941
elle	-1942
▁fav	-1943
▁break	-1944
what	-1945
▁host	-1946
▁Franz	-1947
▁carry	-1948
▁happiness	-1949
▁impossible	-1950
▁iron	-1951
ingly	-1952
▁burn	-1953
aj	-1954
▁tem	-1955
▁main	-1956
▁remark	-1957
owers	-1958
▁prince	-1959
▁across	-1960
▁stopped	-1961
▁purs	-1962
▁lim	-1963
▁Well	-1964
▁De	-1965
▁fre	-1966
▁dread	-1967
▁forward	-1968
uted	-1969
clock	-1970
though	-1971
▁regard	-1972
▁Oh	-1973
▁av	-1974
uous	-1975
▁auth	-1976
▁inn	-1977
▁speaking	-1978
▁attention	-1979
mes	-1980
▁fig	-1981
▁send	-1982
erence	-1983
▁guard	-1984
▁bright	-1985
uff	-1986
▁sus	-1987
▁year	-1988
▁beneath	-1989
▁’	-1990
ames	-1991
▁calm	-1992
▁evidently	-1993
▁produ	-1994
▁tears	-1995
itation	-1996
vere	-1997
There	-1998
▁dress	-1999
▁worth	-2000
▁living	-2001
▁neither	-2002
bour	-2003
ency	-2004
▁fat	-2005
▁rev	-2006
icked	-2007
▁anyone	-2008
fe	-2009
▁Ben	-2010
▁Mrs	-2011
▁suppose	-2012
▁emp	-2013
▁mag	-2014
▁news	-2015
—”	-2016
▁satisf	-2017
ales	-2018
sib	-2019
▁perm	-2020
Do	-2021
▁ast	-2022
▁hat	-2023
asion	-2024
▁viol	-2025
▁beside	-2026
▁street	-2027
▁arr	-2028
▁knows	-2029
▁delight	-2030
cer	-2031
▁Kut	-2032
arent	-2033
▁ball	-2034
▁Saint	-2035
▁wanted	-2036
▁mention	-2037
rage	-2038
▁len	-2039
▁inform	-2040
▁jud	-2041
▁evil	-2042
▁fan	-2043
usion	-2044
▁rapid	-2045
▁leg	-2046
▁port	-2047
▁quiet	-2048
▁corner	-2049
▁princi	-2050
ao	-2051
zov	-2052
▁cre	-2053
▁enc	-2054
ality	-2055
▁steps	-2056
▁story	-2057
▁Why	-2058
▁bound	-2059
▁descend	-2060
ivid	-2061
▁Sun	-2062
pping	-2063
▁anim	-2064
▁dut	-2065
▁mat	-2066
ob	-2067
itten	-2068
▁Thénardier	-2069
ges	-2070
▁bear	-2071
▁sail	-2072
▁succ	-2073
▁former	-2074
AN	-2075
olute	-2076
▁occur	-2077
▁effort	-2078
▁watch	-2079
▁prev	-2080
▁summ	-2081
▁tone	-2082
▁agree	-2083
▁later	-2084
▁din	-2085
▁lips	-2086
▁hours	-2087
▁makes	-2088
itary	-2089
▁Miss	-2090
▁coun	-2091
▁arrived	-2092
...”	-2093
▁purp	-2094
▁glass	-2095
▁moved	-2096
▁drawing	-2097
▁wild	-2098
▁silent	-2099
▁character	-2100
▁necessary	-2101
▁slow	-2102
▁vain	-2103
ius	-2104
raid	-2105
▁lie	-2106
▁boat	-2107
▁rich	-2108
▁occup	-2109
ras	-2110
▁Ach	-2111
▁change	-2112
▁entire	-2113
▁beginning	-2114
kn	-2115
▁sweet	-2116
▁length	-2117
uct	-2118
▁Nor	-2119
▁harm	-2120
▁eight	-2121
erc	-2122
ony	-2123
▁glad	-2124
▁conce	-2125
▁govern	-2126
bo	-2127
raph	-2128
▁wine	-2129
▁wished	-2130
▁Ahab	-2131
ters	-2132
▁whis	-2133
▁trees	-2134
▁single	-2135
▁Here	-2136
▁pret	-2137
▁show	-2138
▁closed	-2139
ler	-2140
▁Te	-2141
▁scar	-2142
▁charm	-2143
▁immediately	-2144
▁band	-2145
▁princess	-2146
just	-2147
▁pock	-2148
▁minutes	-2149
▁fixed	-2150
▁Sc	-2151
umed	-2152
▁mem	-2153
▁afraid	-2154
▁troops	-2155
▁lady	-2156
▁late	-2157
▁self	-2158
▁author	-2159
semb	-2160
val	-2161
inary	-2162
▁experi	-2163
tained	-2164
▁thoughts	-2165
▁Or	-2166
▁pen	-2167
▁paid	-2168
OR	-2169
ley	-2170
▁loud	-2171
cing	-2172
▁King	-2173
▁paper	-2174
▁fut	-2175
▁spo	-2176
▁gun	-2177
▁sol	-2178
emois	-2179
▁thick	-2180
▁circum	-2181
▁opinion	-2182
▁distance	-2183
▁Tz	-2184
▁Cap	-2185
▁val	-2186
emoiselle	-2187
▁anx	-2188
▁reply	-2189
▁complete	-2190
▁straight	-2191
:--	-2192
▁virt	-2193
▁sense	-2194
▁proceed	-2195
In	-2196
▁Hol	-2197
▁try	-2198
▁fate	-2199
▁killed	-2200
▁spirit	-2201
▁Russian	-2202
▁countess	-2203
ics	-2204
▁disappe	-2205
▁conversation	-2206
IT	-2207
yr	-2208
under	-2209
▁court	-2210
cks	-2211
ours	-2212
▁won	-2213
▁fing	-2214
▁neigh	-2215
▁accept	-2216
▁talking	-2217
▁thinking	-2218
anks	-2219
▁honor	-2220
gg	-2221
Then	-2222
lies	-2223
▁blue	-2224
▁below	-2225
▁orders	-2226
▁camp	-2227
▁soft	-2228
khov	-2229
▁kill	-2230
▁weak	-2231
▁repeated	-2232
▁fly	-2233
light	-2234
asp	-2235
▁Of	-2236
▁green	-2237
▁reach	-2238
▁tremb	-2239
retched	-2240
▁slight	-2241
ilt	-2242
Wh	-2243
ek	-2244
▁hig	-2245
▁Some	-2246
▁demand	-2247
▁suit	-2248
▁future	-2249
▁history	-2250
net	-2251
▁vill	-2252
▁understood	-2253
ustom	-2254
▁sorrow	-2255
▁soldier	-2256
▁presence	-2257
▁lived	-2258
▁English	-2259
oose	-2260
▁States	-2261
▁public	-2262
▁Pet	-2263
▁top	-2264
▁mine	-2265
▁gloom	-2266
▁laws	-2267
loy	-2268
alt	-2269
▁occasion	-2270
ned	-2271
ration	-2272
▁attend	-2273
▁dinner	-2274
▁forget	-2275
▁walked	-2276
▁natural	-2277
▁Plat	-2278
▁desire	-2279
▁intell	-2280
▁address	-2281
ND	-2282
▁meant	-2283
▁broken	-2284
▁caught	-2285
ored	-2286
antly	-2287
avert	-2288
▁mass	-2289
▁fresh	-2290
▁Holmes	-2291
▁darkness	-2292
nya	-2293
▁lab	-2294
cience	-2295
▁loved	-2296
▁threw	-2297
▁breast	-2298
▁Li	-2299
oned	-2300
▁While	-2301
▁destroy	-2302
cient	-2303
▁trad	-2304
▁wait	-2305
▁nearly	-2306
▁success	-2307
lig	-2308
▁rul	-2309
▁comb	-2310
▁maid	-2311
▁none	-2312
▁warm	-2313
▁grave	-2314
ónya	-2315
▁box	-2316
▁shore	-2317
ubb	-2318
▁Den	-2319
▁Who	-2320
bb	-2321
▁bow	-2322
▁pat	-2323
olution	-2324
▁Javert	-2325
▁belong	-2326
▁breath	-2327
▁report	-2328
sov	-2329
▁sho	-2330
▁floor	-2331
▁waiting	-2332
ooh	-2333
ically	-2334
▁purpose	-2335
par	-2336
▁bey	-2337
eness	-2338
ented	-2339
ancing	-2340
▁service	-2341
▁written	-2342
ón	-2343
▁Every	-2344
▁beyond	-2345
....	-2346
ected	-2347
▁seized	-2348
ager	-2349
aled	-2350
▁action	-2351
▁escape	-2352
▁quickly	-2353
▁agreement	-2354
▁Am	-2355
▁Hector	-2356
▁copyright	-2357
▁big	-2358
▁Troy	-2359
ries	-2360
▁Bor	-2361
▁Cad	-2362
▁Dar	-2363
▁chance	-2364
▁officers	-2365
ume	-2366
ises	-2367
peci	-2368
▁ago	-2369
▁kiss	-2370
ísov	-2371
ified	-2372
▁filled	-2373
▁heavy	-2374
▁instead	-2375
atever	-2376
▁please	-2377
▁ann	-2378
▁nar	-2379
▁wit	-2380
morrow	-2381
▁Darcy	-2382
ism	-2383
▁Le	-2384
▁Sp	-2385
▁vol	-2386
▁spot	-2387
▁enter	-2388
▁fortune	-2389
▁oppos	-2390
▁wrong	-2391
▁although	-2392
▁Christ	-2393
▁advant	-2394
▁Chapter	-2395
▁den	-2396
▁peas	-2397
▁Sónya	-2398
--------	-2399
▁shouted	-2400
med	-2401
▁individ	-2402
els	-2403
leep	-2404
▁easy	-2405
▁hill	-2406
▁latter	-2407
anch	-2408
ists	-2409
lling	-2410
▁employ	-2411
▁Ne	-2412
ively	-2413
night	-2414
▁meaning	-2415
▁circumst	-2416
▁appearance	-2417
▁mut	-2418
▁sky	-2419
▁sla	-2420
ortal	-2421
idence	-2422
▁utter	-2423
erousse	-2424
ien	-2425
arer	-2426
▁grew	-2427
fer	-2428
uel	-2429
hood	-2430
▁Dor	-2431
▁hop	-2432
▁deal	-2433
▁treat	-2434
▁depart	-2435
▁Denísov	-2436
▁approach	-2437
known	-2438
▁plan	-2439
ection	-2440
▁stone	-2441
▁prevent	-2442
▁society	-2443
▁forest	-2444
▁merely	-2445
▁middle	-2446
▁individual	-2447
lace	-2448
amber	-2449
▁wound	-2450
▁forgot	-2451
▁Achilles	-2452
▁Caderousse	-2453
▁motion	-2454
▁pretty	-2455
OO	-2456
ici	-2457
▁En	-2458
▁ign	-2459
This	-2460
iant	-2461
isted	-2462
▁exam	-2463
▁includ	-2464
▁attempt	-2465
▁stranger	-2466
achus	-2467
▁usual	-2468
angu	-2469
▁study	-2470
▁Mademoiselle	-2471
▁coat	-2472
▁describ	-2473
▁getting	-2474
▁fal	-2475
asure	-2476
LE	-2477
ision	-2478
▁mill	-2479
dom	-2480
▁Ed	-2481
▁jour	-2482
▁alarm	-2483
▁courage	-2484
▁movement	-2485
cked	-2486
▁firm	-2487
ady	-2488
▁mark	-2489
▁glance	-2490
▁passage	-2491
▁wounded	-2492
▁direction	-2493
ees	-2494
rest	-2495
▁Van	-2496
▁allow	-2497
ah	-2498
Book	-2499
▁und	-2500
▁duty	-2501
▁pocket	-2502
co	-2503
wo	-2504
aff	-2505
▁neck	-2506
▁Where	-2507
▁simple	-2508
▁perform	-2509
▁clot	-2510
▁cost	-2511
▁simp	-2512
▁spread	-2513
▁noticed	-2514
RE	-2515
eds	-2516
pit	-2517
ugg	-2518
omer	-2519
▁marry	-2520
▁train	-2521
▁result	-2522
▁toward	-2523
▁gentleman	-2524
urg	-2525
▁shut	-2526
OU	-2527
SE	-2528
ouses	-2529
▁bold	-2530
pecially	-2531
▁greater	-2532
▁outside	-2533
idge	-2534
▁running	-2535
gor	-2536
▁suc	-2537
▁blind	-2538
▁walls	-2539
▁succeed	-2540
non	-2541
Come	-2542
ship	-2543
▁Tro	-2544
▁van	-2545
▁conn	-2546
culiar	-2547
cerf	-2548
▁pit	-2549
▁race	-2550
anging	-2551
▁deser	-2552
▁probably	-2553
aped	-2554
▁covered	-2555
▁peculiar	-2556
▁afterwards	-2557
reme	-2558
▁gro	-2559
▁note	-2560
▁formed	-2561
▁silver	-2562
ding	-2563
▁pun	-2564
▁grow	-2565
▁infl	-2566
▁noble	-2567
▁Morcerf	-2568
▁retreat	-2569
▁marriage	-2570
jo	-2571
▁Arch	-2572
▁brave	-2573
TI	-2574
Now	-2575
ously	-2576
verse	-2577
▁seven	-2578
▁giving	-2579
▁slowly	-2580
ma	-2581
ring	-2582
teen	-2583
▁Fau	-2584
▁trave	-2585
▁died	-2586
▁pull	-2587
▁Plato	-2588
▁fallen	-2589
ades	-2590
▁lif	-2591
▁que	-2592
▁exact	-2593
▁important	-2594
lov	-2595
▁lean	-2596
▁ben	-2597
▁apart	-2598
▁aston	-2599
▁early	-2600
▁lower	-2601
000	-2602
ague	-2603
▁bank	-2604
▁wide	-2605
▁smoke	-2606
▁pal	-2607
▁educ	-2608
▁save	-2609
▁asleep	-2610
▁trying	-2611
▁leaving	-2612
now	-2613
▁da	-2614
▁var	-2615
▁fier	-2616
▁prec	-2617
▁beauty	-2618
eks	-2619
▁Ph	-2620
aded	-2621
cely	-2622
▁broad	-2623
▁collect	-2624
inal	-2625
▁pity	-2626
▁France	-2627
uit	-2628
▁pa	-2629
ests	-2630
▁maj	-2631
▁becom	-2632
▁United	-2633
▁passing	-2634
▁greatest	-2635
othy	-2636
urch	-2637
▁cart	-2638
▁absolute	-2639
urs	-2640
ended	-2641
▁angry	-2642
▁comfort	-2643
▁expected	-2644
▁Bar	-2645
▁incre	-2646
ys	-2647
▁6	-2648
▁fee	-2649
▁Troj	-2650
▁bott	-2651
erable	-2652
▁concl	-2653
▁months	-2654
▁Dorothy	-2655
III	-2656
ept	-2657
arse	-2658
▁rid	-2659
ories	-2660
▁stat	-2661
icense	-2662
▁trouble	-2663
▁especially	-2664
aval	-2665
▁eBook	-2666
▁according	-2667
▁commander	-2668
ishop	-2669
▁dust	-2670
▁lying	-2671
▁furn	-2672
▁orig	-2673
▁pract	-2674
▁river	-2675
▁separ	-2676
go	-2677
Not	-2678
▁holding	-2679
▁married	-2680
uge	-2681
▁listened	-2682
▁shoulders	-2683
OM	-2684
▁party	-2685
▁sharp	-2686
▁difficult	-2687
ners	-2688
▁sal	-2689
▁surprise	-2690
sequ	-2691
▁cab	-2692
▁deg	-2693
▁mel	-2694
▁Pooh	-2695
▁notice	-2696
▁despair	-2697
▁Ag	-2698
▁burst	-2699
▁heads	-2700
▁smiled	-2701
▁civ	-2702
▁dog	-2703
▁med	-2704
▁por	-2705
ishing	-2706
▁police	-2707
▁ancient	-2708
itated	-2709
▁determ	-2710
▁possib	-2711
oured	-2712
▁chair	-2713
▁quarter	-2714
▁bri	-2715
ences	-2716
ompan	-2717
▁super	-2718
ertainly	-2719
▁servant	-2720
▁smiling	-2721
ior	-2722
ski	-2723
▁arg	-2724
▁bell	-2725
▁piece	-2726
▁easily	-2727
rect	-2728
osing	-2729
▁polit	-2730
iterary	-2731
play	-2732
pper	-2733
▁exec	-2734
▁ideas	-2735
▁barric	-2736
▁figure	-2737
uss	-2738
wor	-2739
ives	-2740
wise	-2741
cript	-2742
▁Rome	-2743
▁sides	-2744
▁military	-2745
▁whatever	-2746
To	-2747
iod	-2748
aire	-2749
▁fun	-2750
agraph	-2751
▁paragraph	-2752
axim	-2753
esty	-2754
▁cand	-2755
▁spite	-2756
▁perfectly	-2757
do	-2758
uly	-2759
▁seat	-2760
▁appears	-2761
gy	-2762
aly	-2763
▁Se	-2764
▁Tr	-2765
unity	-2766
▁situ	-2767
▁tail	-2768
▁liber	-2769
▁charge	-2770
▁allowed	-2771
▁sy	-2772
▁See	-2773
▁win	-2774
▁tree	-2775
▁eager	-2776
▁serious	-2777
▁support	-2778
▁Just	-2779
▁surr	-2780
▁gate	-2781
▁Bennet	-2782
▁regiment	-2783
ator	-2784
▁clo	-2785
▁lives	-2786
▁advantage	-2787
joy	-2788
mond	-2789
▁phy	-2790
▁empt	-2791
▁hunt	-2792
ppy	-2793
,000	-2794
▁Yet	-2795
▁lies	-2796
▁rage	-2797
▁grief	-2798
▁houses	-2799
cial	-2800
held	-2801
inite	-2802
irtier	-2803
▁rising	-2804
▁persons	-2805
▁pleased	-2806
▁receive	-2807
▁unknown	-2808
▁interrupt	-2809
bor	-2810
▁fro	-2811
▁sch	-2812
▁Such	-2813
▁bread	-2814
▁class	-2815
▁faith	-2816
▁divine	-2817
▁everyone	-2818
▁disappeared	-2819
▁dw	-2820
▁minute	-2821
▁reflect	-2822
Is	-2823
org	-2824
▁Dó	-2825
ingu	-2826
▁blow	-2827
▁priv	-2828
▁twel	-2829
▁golden	-2830
▁journey	-2831
▁excellency	-2832
ais	-2833
pic	-2834
rate	-2835
▁ves	-2836
seless	-2837
▁oblig	-2838
▁access	-2839
▁contrary	-2840
oh	-2841
▁scene	-2842
▁Noirtier	-2843
▁flew	-2844
ishment	-2845
▁feelings	-2846
ashed	-2847
▁Mont	-2848
▁poet	-2849
▁conqu	-2850
▁tender	-2851
."]	-2852
▁La	-2853
They	-2854
ming	-2855
lokhov	-2856
▁music	-2857
▁teeth	-2858
ald	-2859
ouis	-2860
bered	-2861
ested	-2862
▁food	-2863
▁company	-2864
OOK	-2865
ulty	-2866
▁har	-2867
▁hot	-2868
ushing	-2869
▁false	-2870
▁stern	-2871
▁spring	-2872
▁Dólokhov	-2873
▁thin	-2874
▁display	-2875
▁health	-2876
▁island	-2877
▁vessel	-2878
—“	-2879
▁hide	-2880
fortun	-2881
▁dressed	-2882
come	-2883
ander	-2884
enced	-2885
▁bent	-2886
▁Homer	-2887
▁shook	-2888
▁histor	-2889
ays	-2890
▁er	-2891
ases	-2892
lemn	-2893
idered	-2894
▁spect	-2895
▁solemn	-2896
▁thunder	-2897
ton	-2898
▁stro	-2899
pected	-2900
▁bottom	-2901
ruct	-2902
▁safe	-2903
▁Whale	-2904
▁enjoy	-2905
▁ignor	-2906
▁virtue	-2907
▁promise	-2908
arily	-2909
emark	-2910
▁crew	-2911
▁drag	-2912
ception	-2913
▁shadow	-2914
▁opposite	-2915
▁questions	-2916
how	-2917
oted	-2918
▁smo	-2919
arked	-2920
▁ears	-2921
▁tall	-2922
▁bless	-2923
▁langu	-2924
▁noise	-2925
▁yield	-2926
▁terror	-2927
▁finished	-2928
▁difficulty	-2929
ham	-2930
rid	-2931
fast	-2932
▁Per	-2933
lsing	-2934
▁capt	-2935
▁sake	-2936
▁proud	-2937
▁showed	-2938
▁Helsing	-2939
LI	-2940
▁roy	-2941
ument	-2942
▁pict	-2943
▁sword	-2944
▁accompan	-2945
▁distingu	-2946
oup	-2947
ilian	-2948
ingley	-2949
▁imper	-2950
▁Captain	-2951
▁started	-2952
▁entirely	-2953
cr	-2954
pon	-2955
tled	-2956
▁gen	-2957
▁sli	-2958
▁snow	-2959
▁drawn	-2960
▁events	-2961
▁changed	-2962
▁touched	-2963
▁various	-2964
rea	-2965
▁dim	-2966
▁obey	-2967
▁trust	-2968
▁Archive	-2969
▁Bingley	-2970
▁Monsieur	-2971
▁ourselves	-2972
▁Ly	-2973
▁XV	-2974
ples	-2975
uting	-2976
▁beat	-2977
▁cook	-2978
▁legs	-2979
▁contain	-2980
▁imagine	-2981
ustration	-2982
▁Literary	-2983
So	-2984
▁Br	-2985
race	-2986
athan	-2987
▁yell	-2988
▁places	-2989
▁pointed	-2990
ís	-2991
ilar	-2992
olog	-2993
▁ble	-2994
▁habit	-2995
▁indic	-2996
▁simply	-2997
▁stream	-2998
▁twelve	-2999
CT	-3000
▁murm	-3001
▁concern	-3002
▁gentlemen	-3003
hel	-3004
rif	-3005
rop	-3006
ails	-3007
▁ant	-3008
▁eld	-3009
▁loc	-3010
▁Merc	-3011
▁rise	-3012
▁broke	-3013
▁assist	-3014
▁forced	-3015
▁conscious	-3016
▁dare	-3017
▁sacri	-3018
▁ships	-3019
dd	-3020
▁tast	-3021
theless	-3022
▁shoulder	-3023
?"	-3024
iny	-3025
kes	-3026
ouds	-3027
▁aim	-3028
▁pac	-3029
▁path	-3030
▁famil	-3031
▁storm	-3032
▁opport	-3033
▁period	-3034
▁affection	-3035
ye	-3036
yl	-3037
roche	-3038
▁sens	-3039
ounced	-3040
▁gazed	-3041
▁listen	-3042
▁knowing	-3043
▁letters	-3044
▁dreadful	-3045
▁observed	-3046
▁Lord	-3047
tering	-3048
▁knees	-3049
▁recei	-3050
▁write	-3051
▁Andrea	-3052
▁decided	-3053
▁visible	-3054
▁Gav	-3055
▁seated	-3056
▁Min	-3057
▁hid	-3058
pered	-3059
▁Jane	-3060
▁vast	-3061
▁drove	-3062
▁caused	-3063
▁moving	-3064
▁Gavroche	-3065
▁scarcely	-3066
▁Yu	-3067
aves	-3068
oved	-3069
▁wol	-3070
▁dart	-3071
▁ring	-3072
▁unless	-3073
she	-3074
▁bare	-3075
▁bore	-3076
▁lose	-3077
▁vent	-3078
▁press	-3079
ability	-3080
▁Edmond	-3081
▁However	-3082
▁suffici	-3083
▁existence	-3084
THE	-3085
zen	-3086
iles	-3087
▁amid	-3088
▁didn	-3089
▁unha	-3090
▁honour	-3091
▁creature	-3092
▁barricade	-3093
lin	-3094
▁avo	-3095
▁moon	-3096
▁wise	-3097
ternal	-3098
▁fifty	-3099
▁intro	-3100
▁myster	-3101
▁frightened	-3102
ray	-3103
▁Wu	-3104
retch	-3105
▁Made	-3106
levent	-3107
▁unable	-3108
▁ordered	-3109
▁trembling	-3110
onel	-3111
▁abb	-3112
▁Beau	-3113
father	-3114
▁faces	-3115
▁wrote	-3116
▁learned	-3117
CE	-3118
▁Dr	-3119
▁[1	-3120
atic	-3121
lovna	-3122
▁stop	-3123
▁likely	-3124
▁obtain	-3125
▁superi	-3126
Who	-3127
▁Anna	-3128
▁Lond	-3129
▁fool	-3130
▁condition	-3131
▁education	-3132
▁ur	-3133
▁goes	-3134
▁board	-3135
▁Gregor	-3136
▁beheld	-3137
▁church	-3138
▁conduct	-3139
▁inh	-3140
▁tow	-3141
aling	-3142
olved	-3143
iction	-3144
▁worse	-3145
▁affair	-3146
▁flight	-3147
▁sacrif	-3148
éd	-3149
anqu	-3150
arsh	-3151
▁cloud	-3152
▁girls	-3153
▁thrown	-3154
▁advance	-3155
.,	-3156
amb	-3157
umn	-3158
▁IN	-3159
ament	-3160
▁Lucy	-3161
▁rend	-3162
▁shud	-3163
ashion	-3164
▁Their	-3165
▁begun	-3166
▁fault	-3167
▁parts	-3168
▁Fauche	-3169
▁repres	-3170
▁village	-3171
▁inquired	-3172
▁donations	-3173
▁mentioned	-3174
▁presented	-3175
uls	-3176
leine	-3177
while	-3178
▁Borís	-3179
▁aside	-3180
▁touch	-3181
▁extend	-3182
▁writing	-3183
▁Madeleine	-3184
▁trademark	-3185
▁Fauchelevent	-3186
Let	-3187
set	-3188
Good	-3189
cure	-3190
ghed	-3191
▁disg	-3192
▁alive	-3193
▁chamber	-3194
▁walking	-3195
▁Me	-3196
▁ladies	-3197
▁require	-3198
▁profound	-3199
▁dism	-3200
▁ming	-3201
▁influ	-3202
▁London	-3203
▁spoken	-3204
▁clothes	-3205
▁Ts	-3206
soci	-3207
▁admir	-3208
▁hurried	-3209
▁forgotten	-3210
Ill	-3211
aked	-3212
▁rock	-3213
▁rode	-3214
▁rushed	-3215
▁strugg	-3216
▁voices	-3217
▁confess	-3218
▁opening	-3219
▁passion	-3220
▁intellig	-3221
▁approached	-3222
ING	-3223
▁fla	-3224
izing	-3225
▁weep	-3226
▁equal	-3227
▁engaged	-3228
▁distinct	-3229
▁occurred	-3230
▁coff	-3231
▁phys	-3232
▁fancy	-3233
▁offer	-3234
▁explain	-3235
▁remarked	-3236
bl	-3237
burg	-3238
▁Will	-3239
▁magn	-3240
▁streets	-3241
▁uttered	-3242
▁servants	-3243
▁awa	-3244
▁Mart	-3245
▁Your	-3246
▁miss	-3247
▁aband	-3248
▁associ	-3249
▁gloomy	-3250
▁suffer	-3251
▁superior	-3252
Illustration	-3253
▁Pé	-3254
▁neg	-3255
▁bird	-3256
▁extra	-3257
▁besides	-3258
▁occupied	-3259
▁perceived	-3260
▁remembered	-3261
?—	-3262
ulf	-3263
▁Go	-3264
▁cho	-3265
▁sen	-3266
▁ver	-3267
▁Aust	-3268
▁gives	-3269
▁property	-3270
▁considered	-3271
ieu	-3272
hest	-3273
▁Bou	-3274
▁sac	-3275
▁BOOK	-3276
▁ende	-3277
▁hall	-3278
▁crown	-3279
▁windows	-3280
1.	-3281
▁lines	-3282
▁takes	-3283
lemachus	-3284
aximilian	-3285
af	-3286
▁sple	-3287
▁civil	-3288
▁swift	-3289
▁clouds	-3290
▁depend	-3291
▁circumstances	-3292
▁Jon	-3293
▁hes	-3294
chief	-3295
▁compl	-3296
▁Greece	-3297
▁handsome	-3298
▁philosophy	-3299
cle	-3300
gin	-3301
uses	-3302
▁Com	-3303
▁der	-3304
ature	-3305
▁shot	-3306
attered	-3307
▁Bishop	-3308
▁victory	-3309
▁advanced	-3310
ex	-3311
ios	-3312
lex	-3313
▁More	-3314
▁entr	-3315
▁jump	-3316
▁seek	-3317
▁talked	-3318
tya	-3319
▁Gu	-3320
▁harp	-3321
▁sick	-3322
▁sons	-3323
▁cheer	-3324
▁enorm	-3325
▁grace	-3326
▁midst	-3327
▁speed	-3328
▁height	-3329
▁impress	-3330
▁reading	-3331
▁prepared	-3332
▁Vas	-3333
Where	-3334
▁abbé	-3335
▁join	-3336
▁preser	-3337
▁recall	-3338
▁similar	-3339
ED	-3340
When	-3341
upid	-3342
terday	-3343
▁empty	-3344
▁memory	-3345
▁papers	-3346
▁sacred	-3347
▁discovered	-3348
con	-3349
▁fet	-3350
▁ris	-3351
▁Peters	-3352
▁wealth	-3353
▁surprised	-3354
▁Bes	-3355
▁bod	-3356
atsby	-3357
▁warri	-3358
ancholy	-3359
ruction	-3360
▁horror	-3361
▁inquir	-3362
▁resemb	-3363
▁waited	-3364
▁satisfied	-3365
acy	-3366
▁ones	-3367
▁looks	-3368
▁rapidly	-3369
▁government	-3370
ae	-3371
ech	-3372
▁gar	-3373
▁sym	-3374
▁mour	-3375
▁pure	-3376
▁Father	-3377
▁thirty	-3378
▁consequ	-3379
▁obliged	-3380
▁Gr	-3381
aker	-3382
unic	-3383
▁sand	-3384
enance	-3385
orious	-3386
▁Pétya	-3387
▁march	-3388
▁prove	-3389
▁explan	-3390
▁higher	-3391
▁affairs	-3392
▁glanced	-3393
no	-3394
án	-3395
ín	-3396
cian	-3397
édès	-3398
▁dam	-3399
▁coll	-3400
▁fish	-3401
▁rain	-3402
▁unex	-3403
▁dying	-3404
▁clearly	-3405
▁wretched	-3406
▁generally	-3407
olk	-3408
▁pi	-3409
▁Tom	-3410
▁sav	-3411
antic	-3412
▁gain	-3413
▁chest	-3414
▁bitter	-3415
▁sought	-3416
▁splend	-3417
▁introdu	-3418
▁prisoner	-3419
AL	-3420
zz	-3421
——”	-3422
▁Ex	-3423
▁XX	-3424
▁Come	-3425
▁deck	-3426
▁devil	-3427
▁examp	-3428
▁design	-3429
▁matters	-3430
▁witness	-3431
po	-3432
pse	-3433
▁Two	-3434
▁amb	-3435
▁star	-3436
▁Stubb	-3437
▁Gatsby	-3438
▁mighty	-3439
▁parent	-3440
▁fashion	-3441
▁resumed	-3442
▁charming	-3443
▁laughing	-3444
▁melancholy	-3445
▁possession	-3446
▁information	-3447
IL	-3448
jol	-3449
▁alt	-3450
▁pet	-3451
▁tyr	-3452
▁Only	-3453
▁pier	-3454
▁sugg	-3455
▁endeav	-3456
▁served	-3457
▁curious	-3458
pond	-3459
umph	-3460
▁dom	-3461
▁unf	-3462
aming	-3463
▁decla	-3464
▁shame	-3465
▁distant	-3466
app	-3467
unk	-3468
▁aid	-3469
champ	-3470
▁Vasí	-3471
vering	-3472
▁glory	-3473
▁happen	-3474
▁breakfast	-3475
▁recollect	-3476
——	-3477
mer	-3478
vey	-3479
▁Cl	-3480
this	-3481
▁key	-3482
gress	-3483
iform	-3484
istol	-3485
▁stir	-3486
▁space	-3487
▁acquaint	-3488
▁Telemachus	-3489
▁philosopher	-3490
▁meth	-3491
▁nose	-3492
▁thro	-3493
▁double	-3494
▁powers	-3495
▁extreme	-3496
▁suitors	-3497
▁produced	-3498
▁companion	-3499
▁permission	-3500
ify	-3501
nce	-3502
uee	-3503
queg	-3504
▁cow	-3505
▁wed	-3506
ether	-3507
▁brow	-3508
ormand	-3509
ueequeg	-3510
▁discuss	-3511
▁Maximilian	-3512
pir	-3513
▁uni	-3514
▁nine	-3515
▁pati	-3516
▁vague	-3517
osition	-3518
▁behold	-3519
▁fields	-3520
▁sprang	-3521
▁laughed	-3522
▁uniform	-3523
▁excellent	-3524
7.	-3525
su	-3526
irst	-3527
ital	-3528
▁fold	-3529
▁roof	-3530
action	-3531
▁innoc	-3532
▁knock	-3533
zy	-3534
gel	-3535
long	-3536
▁Tur	-3537
▁ash	-3538
ember	-3539
jolras	-3540
racted	-3541
▁uneas	-3542
▁narrow	-3543
▁offered	-3544
!—	-3545
▁Fl	-3546
cies	-3547
▁Sil	-3548
eneral	-3549
▁forms	-3550
▁expressed	-3551
▁Petersburg	-3552
▁interrupted	-3553
athe	-3554
▁crime	-3555
▁shock	-3556
▁slain	-3557
▁bridge	-3558
▁comply	-3559
▁paused	-3560
ww	-3561
aud	-3562
mon	-3563
▁id	-3564
Here	-3565
▁May	-3566
▁mir	-3567
▁earn	-3568
▁tong	-3569
▁Louis	-3570
▁repro	-3571
▁share	-3572
▁nearer	-3573
▁states	-3574
▁evident	-3575
▁triumph	-3576
▁unhappy	-3577
▁mysterious	-3578
ka	-3579
▁8	-3580
ran	-3581
oped	-3582
▁Man	-3583
▁cit	-3584
▁Even	-3585
▁week	-3586
▁build	-3587
▁freed	-3588
▁degree	-3589
▁threat	-3590
▁flowers	-3591
▁hearing	-3592
▁pressed	-3593
▁remains	-3594
▁enormous	-3595
▁carefully	-3596
▁everybody	-3597
▁recognized	-3598
St	-3599
ih	-3600
ée	-3601
cil	-3602
anted	-3603
apart	-3604
▁proof	-3605
▁spent	-3606
▁supper	-3607
▁yellow	-3608
▁Enjolras	-3609
▁Mercédès	-3610
▁addressed	-3611
.)	-3612
TH	-3613
bre	-3614
str	-3615
▁Sm	-3616
acle	-3617
bers	-3618
uded	-3619
▁AND	-3620
ulous	-3621
▁Cour	-3622
▁fill	-3623
▁fond	-3624
▁Never	-3625
▁search	-3626
▁meeting	-3627
kind	-3628
ardon	-3629
inced	-3630
there	-3631
usted	-3632
inated	-3633
itable	-3634
▁accom	-3635
▁beast	-3636
▁names	-3637
▁Greeks	-3638
▁contem	-3639
▁moments	-3640
▁science	-3641
▁fighting	-3642
▁opportunity	-3643
rac	-3644
▁sor	-3645
imate	-3646
▁rule	-3647
▁Greek	-3648
onapart	-3649
▁burning	-3650
▁falling	-3651
▁required	-3652
my	-3653
She	-3654
ohn	-3655
crow	-3656
look	-3657
will	-3658
▁due	-3659
inous	-3660
▁depth	-3661
▁frequ	-3662
▁hurry	-3663
▁whales	-3664
▁License	-3665
▁Beauchamp	-3666
▁du	-3667
▁Car	-3668
▁pop	-3669
▁sin	-3670
▁pride	-3671
▁pistol	-3672
▁temper	-3673
▁dropped	-3674
▁immense	-3675
▁someone	-3676
▁promised	-3677
▁favor	-3678
▁Vasíli	-3679
▁mortal	-3680
▁listening	-3681
▁countenance	-3682
▁particularly	-3683
▁Ap	-3684
mend	-3685
▁distur	-3686
▁method	-3687
enth	-3688
oura	-3689
rain	-3690
▁Con	-3691
▁mix	-3692
illen	-3693
▁thank	-3694
▁stupid	-3695
▁removed	-3696
▁singular	-3697
▁yesterday	-3698
CH	-3699
rom	-3700
▁Eu	-3701
Your	-3702
▁grasp	-3703
▁grown	-3704
▁saved	-3705
▁Gillen	-3706
▁Trojan	-3707
▁inside	-3708
▁century	-3709
All	-3710
▁Alex	-3711
▁deli	-3712
▁emer	-3713
▁bowed	-3714
▁grass	-3715
▁finger	-3716
▁growing	-3717
▁settled	-3718
▁watched	-3719
▁language	-3720
▁situation	-3721
▁Gillenormand	-3722
▁Ger	-3723
▁Mar	-3724
▁adj	-3725
▁aud	-3726
▁pra	-3727
board	-3728
▁cell	-3729
▁cred	-3730
▁song	-3731
ainted	-3732
▁coach	-3733
▁faint	-3734
▁throw	-3735
▁worthy	-3736
▁ow	-3737
▁clean	-3738
▁inhab	-3739
▁royal	-3740
▁Though	-3741
**	-3742
sy	-3743
ille	-3744
▁Don	-3745
▁foe	-3746
arest	-3747
▁bend	-3748
▁delic	-3749
▁wishes	-3750
▁liberty	-3751
▁station	-3752
▁believed	-3753
▁watching	-3754
▁including	-3755
▁experience	-3756
gar	-3757
▁John	-3758
▁Long	-3759
▁lord	-3760
▁drive	-3761
▁curios	-3762
▁forehead	-3763
▁grandfather	-3764
▁Jul	-3765
▁Lady	-3766
▁fart	-3767
▁baron	-3768
▁using	-3769
▁kissed	-3770
▁exactly	-3771
▁tomorrow	-3772
áv	-3773
nat	-3774
▁XI	-3775
ites	-3776
keep	-3777
oman	-3778
teau	-3779
▁inj	-3780
▁sorry	-3781
arecrow	-3782
▁custom	-3783
▁lifted	-3784
▁modern	-3785
▁weight	-3786
▁shadows	-3787
▁previous	-3788
por	-3789
enge	-3790
rent	-3791
▁Ind	-3792
▁Pig	-3793
▁cup	-3794
▁fit	-3795
antine	-3796
▁haste	-3797
▁calcul	-3798
▁possessed	-3799
3.	-3800
RO	-3801
él	-3802
astic	-3803
▁loss	-3804
▁forty	-3805
▁asking	-3806
▁quietly	-3807
▁miserable	-3808
rope	-3809
▁fra	-3810
▁luck	-3811
▁rejo	-3812
▁roll	-3813
▁judge	-3814
▁misery	-3815
▁fingers	-3816
▁useless	-3817
▁supposed	-3818
▁et	-3819
▁gh	-3820
▁sum	-3821
essor	-3822
▁Sper	-3823
▁ruin	-3824
▁leaves	-3825
▁office	-3826
▁pleasant	-3827
▁somewhat	-3828
▁Scarecrow	-3829
▁unexpected	-3830
isc	-3831
oms	-3832
▁Re	-3833
cean	-3834
▁dry	-3835
▁voy	-3836
asing	-3837
▁reve	-3838
▁Still	-3839
▁books	-3840
▁brain	-3841
▁persu	-3842
▁troub	-3843
▁absence	-3844
▁explanation	-3845
▁Ad	-3846
▁181	-3847
▁fury	-3848
▁mess	-3849
▁waves	-3850
▁arrival	-3851
On	-3852
illy	-3853
omed	-3854
with	-3855
▁Col	-3856
▁Our	-3857
ounds	-3858
using	-3859
▁Anat	-3860
▁huge	-3861
▁ascend	-3862
▁condem	-3863
▁preced	-3864
▁unjust	-3865
▁example	-3866
▁principle	-3867
ueen	-3868
ators	-3869
▁batt	-3870
▁circle	-3871
▁provide	-3872
▁spirits	-3873
▁apparent	-3874
▁curiosity	-3875
▁succeeded	-3876
▁experienced	-3877
ET	-3878
UT	-3879
fty	-3880
itz	-3881
uce	-3882
▁II	-3883
port	-3884
reet	-3885
▁lod	-3886
▁pick	-3887
▁rear	-3888
▁chari	-3889
▁relig	-3890
▁engage	-3891
▁interp	-3892
atherine	-3893
▁Anatole	-3894
▁greatly	-3895
leg	-3896
lly	-3897
▁Po	-3898
▁Tu	-3899
atch	-3900
asons	-3901
▁Coll	-3902
▁wore	-3903
▁Besides	-3904
▁peasant	-3905
▁Certainly	-3906
▁described	-3907
áy	-3908
itch	-3909
▁dawn	-3910
▁guess	-3911
▁ceased	-3912
▁fierce	-3913
▁anxious	-3914
▁whispered	-3915
2.	-3916
ino	-3917
erva	-3918
▁Rep	-3919
▁lar	-3920
▁sew	-3921
▁Char	-3922
▁comr	-3923
▁fail	-3924
▁sigh	-3925
▁birds	-3926
▁souls	-3927
▁points	-3928
▁speech	-3929
gutenberg	-3930
▁instantly	-3931
acc	-3932
erer	-3933
▁Had	-3934
▁grat	-3935
▁pack	-3936
▁sink	-3937
▁group	-3938
▁concer	-3939
▁accompl	-3940
▁keeping	-3941
▁telling	-3942
▁instinct	-3943
▁necessity	-3944
ux	-3945
ids	-3946
▁Mu	-3947
bray	-3948
dess	-3949
urse	-3950
ables	-3951
▁bull	-3952
▁twice	-3953
▁Having	-3954
▁Silver	-3955
▁clever	-3956
▁feared	-3957
▁heroes	-3958
▁influence	-3959
5.	-3960
ker	-3961
▁hy	-3962
cher	-3963
iety	-3964
▁Somet	-3965
▁forces	-3966
▁transl	-3967
▁Minerva	-3968
▁private	-3969
▁extraord	-3970
▁neighbor	-3971
▁difference	-3972
ENT	-3973
irm	-3974
law	-3975
▁LI	-3976
hold	-3977
▁tax	-3978
▁Mina	-3979
▁Great	-3980
▁doors	-3981
▁stock	-3982
▁Piglet	-3983
▁favour	-3984
▁thrust	-3985
▁Nothing	-3986
▁crossed	-3987
▁process	-3988
▁Catherine	-3989
As	-3990
case	-3991
▁Rab	-3992
▁impro	-3993
▁ranks	-3994
▁Before	-3995
▁desper	-3996
▁mingled	-3997
▁special	-3998
▁communic	-3999
▁familiar	-4000
▁horrible	-4001
Ch	-4002
▁Ab	-4003
▁Can	-4004
▁deb	-4005
▁Very	-4006
▁dogs	-4007
▁guns	-4008
▁agreed	-4009
▁marked	-4010
▁hastily	-4011
▁mistake	-4012
▁intended	-4013
Al	-4014
arb	-4015
▁TO	-4016
▁gay	-4017
field	-4018
▁Socr	-4019
▁Wood	-4020
▁reign	-4021
ustomed	-4022
▁shield	-4023
▁becomes	-4024
▁mankind	-4025
▁protect	-4026
▁putting	-4027
OME	-4028
ivity	-4029
▁born	-4030
▁shri	-4031
▁wolf	-4032
stairs	-4033
▁hence	-4034
▁shown	-4035
▁cannon	-4036
▁impati	-4037
▁suffering	-4038
▁completely	-4039
01	-4040
RI	-4041
mp	-4042
ams	-4043
▁estab	-4044
▁Debray	-4045
▁hollow	-4046
▁counsel	-4047
▁discover	-4048
▁convinced	-4049
▁understanding	-4050
▁amaz	-4051
▁huss	-4052
▁benef	-4053
▁boats	-4054
▁advice	-4055
▁pieces	-4056
▁sovere	-4057
▁freedom	-4058
▁entering	-4059
arr	-4060
rap	-4061
clus	-4062
face	-4063
rand	-4064
▁III	-4065
▁Thr	-4066
▁mot	-4067
▁mast	-4068
▁brill	-4069
▁citiz	-4070
▁fatal	-4071
▁liked	-4072
▁famous	-4073
▁farther	-4074
▁surrounded	-4075
▁considerable	-4076
chen	-4077
▁sty	-4078
▁West	-4079
▁lamp	-4080
▁vari	-4081
▁slept	-4082
▁stars	-4083
▁assemb	-4084
▁priest	-4085
▁comment	-4086
▁finally	-4087
▁lighted	-4088
▁monarch	-4089
▁monster	-4090
▁authority	-4091
▁explained	-4092
▁prisoners	-4093
▁extraordinary	-4094
4.	-4095
ias	-4096
rees	-4097
▁rad	-4098
▁murd	-4099
▁tomb	-4100
utions	-4101
▁birth	-4102
▁hopes	-4103
▁minds	-4104
▁shoes	-4105
▁advent	-4106
▁arrest	-4107
▁regular	-4108
▁directed	-4109
▁concealed	-4110
▁descended	-4111
▁concerning	-4112
▁motionless	-4113
LA	-4114
olkón	-4115
▁Prof	-4116
▁task	-4117
▁flies	-4118
▁Rabbit	-4119
▁pulled	-4120
▁suspic	-4121
▁tranqu	-4122
▁convent	-4123
▁reality	-4124
▁directly	-4125
▁determined	-4126
6.	-4127
UR	-4128
oop	-4129
▁rare	-4130
▁cloak	-4131
▁combat	-4132
▁defect	-4133
▁indiff	-4134
cription	-4135
▁escaped	-4136
▁excited	-4137
▁highest	-4138
▁suffered	-4139
Go	-4140
azz	-4141
▁Pat	-4142
▁Rob	-4143
▁rob	-4144
▁ways	-4145
ernand	-4146
▁adjut	-4147
▁anger	-4148
▁choose	-4149
▁honest	-4150
▁prefer	-4151
▁scream	-4152
▁entrance	-4153
▁mistaken	-4154
▁neighbour	-4155
rase	-4156
rors	-4157
ickham	-4158
▁aware	-4159
▁delay	-4160
▁ideal	-4161
▁German	-4162
▁hearts	-4163
▁wicked	-4164
▁Fantine	-4165
▁General	-4166
▁arrange	-4167
▁violent	-4168
▁associated	-4169
----------------	-4170
rem	-4171
▁“_	-4172
▁scr	-4173
cknow	-4174
▁ease	-4175
▁pron	-4176
arbuck	-4177
▁match	-4178
▁rooms	-4179
▁withd	-4180
▁yours	-4181
fortune	-4182
▁reader	-4183
▁stands	-4184
▁unfortun	-4185
▁wonderful	-4186
▁confidence	-4187
olt	-4188
isher	-4189
ospit	-4190
rehen	-4191
▁pushed	-4192
▁regret	-4193
Are	-4194
can	-4195
▁IV	-4196
ailed	-4197
▁dull	-4198
▁ener	-4199
▁hate	-4200
▁myst	-4201
▁acknow	-4202
▁madame	-4203
▁proved	-4204
▁assured	-4205
▁absolutely	-4206
For	-4207
▁Are	-4208
▁lot	-4209
▁cous	-4210
▁pair	-4211
▁lofty	-4212
▁miles	-4213
▁spear	-4214
▁taste	-4215
▁precise	-4216
▁Socrates	-4217
▁progress	-4218
▁Lion	-4219
▁appo	-4220
ensive	-4221
▁admit	-4222
▁claim	-4223
▁staff	-4224
▁sounds	-4225
▁winter	-4226
▁Collins	-4227
▁Wickham	-4228
▁goddess	-4229
▁singing	-4230
▁Professor	-4231
coat	-4232
house	-4233
▁Good	-4234
▁gest	-4235
ecause	-4236
▁fully	-4237
▁flying	-4238
▁interv	-4239
▁refund	-4240
▁school	-4241
▁tongue	-4242
▁addition	-4243
▁mountain	-4244
▁murmured	-4245
AD	-4246
agg	-4247
dia	-4248
eys	-4249
ère	-4250
anti	-4251
▁ess	-4252
▁tum	-4253
▁www	-4254
ounce	-4255
▁exha	-4256
▁rate	-4257
▁symp	-4258
▁feast	-4259
▁truly	-4260
▁Europe	-4261
▁conceal	-4262
▁accustomed	-4263
▁Ge	-4264
▁dish	-4265
isions	-4266
▁today	-4267
▁picked	-4268
▁parents	-4269
▁official	-4270
▁departure	-4271
▁approaching	-4272
noon	-4273
ture	-4274
aches	-4275
▁sire	-4276
▁invol	-4277
▁penet	-4278
▁stair	-4279
▁turns	-4280
▁copies	-4281
▁hither	-4282
▁infant	-4283
▁throat	-4284
▁England	-4285
▁content	-4286
▁profess	-4287
▁Starbuck	-4288
▁accepted	-4289
▁splendid	-4290
▁destroyed	-4291
▁otherwise	-4292
▁rum	-4293
▁fled	-4294
▁hole	-4295
▁medi	-4296
iments	-4297
▁Hence	-4298
▁raise	-4299
▁rough	-4300
olkónski	-4301
▁Bonapart	-4302
▁arranged	-4303
▁everywhere	-4304
▁misfortune	-4305
fl	-4306
Have	-4307
line	-4308
▁Was	-4309
▁chim	-4310
lessly	-4311
▁severe	-4312
▁efforts	-4313
▁emotion	-4314
▁laughter	-4315
▁rendered	-4316
▁sleeping	-4317
dig	-4318
estor	-4319
▁aunt	-4320
▁gaze	-4321
▁sees	-4322
rified	-4323
▁blame	-4324
▁tired	-4325
▁venge	-4326
▁attent	-4327
▁credit	-4328
▁genius	-4329
▁square	-4330
▁summer	-4331
▁whence	-4332
▁Fernand	-4333
▁earnest	-4334
▁carrying	-4335
ki	-4336
cio	-4337
het	-4338
oul	-4339
ault	-4340
stand	-4341
venge	-4342
which	-4343
▁weap	-4344
urally	-4345
▁avoid	-4346
▁groan	-4347
▁amount	-4348
▁deeply	-4349
▁pardon	-4350
▁undert	-4351
▁wisdom	-4352
▁numbers	-4353
▁wedding	-4354
▁infinite	-4355
0.	-4356
agr	-4357
att	-4358
aws	-4359
aisy	-4360
orge	-4361
rows	-4362
▁bul	-4363
▁vig	-4364
gment	-4365
▁carp	-4366
▁defe	-4367
▁pros	-4368
▁whir	-4369
justice	-4370
▁freely	-4371
▁possibly	-4372
▁regarded	-4373
▁sovereign	-4374
▁conscience	-4375
▁accompanied	-4376
fey	-4377
hem	-4378
uan	-4379
ule	-4380
▁Fe	-4381
ords	-4382
▁Páv	-4383
▁elb	-4384
ading	-4385
ucket	-4386
▁Like	-4387
▁date	-4388
▁worn	-4389
▁Those	-4390
▁calls	-4391
▁dance	-4392
▁fever	-4393
▁rolled	-4394
▁Jonathan	-4395
▁confused	-4396
reg	-4397
▁gle	-4398
▁nice	-4399
▁oper	-4400
▁shirt	-4401
▁hospit	-4402
▁invent	-4403
▁useful	-4404
▁voyage	-4405
▁project	-4406
▁stepped	-4407
At	-4408
Ex	-4409
uish	-4410
▁bot	-4411
▁grad	-4412
feyrac	-4413
▁dwell	-4414
▁smell	-4415
▁wheel	-4416
alities	-4417
▁demanded	-4418
▁deserted	-4419
▁ordinary	-4420
▁provided	-4421
▁shouting	-4422
▁afternoon	-4423
▁entertain	-4424
▁7	-4425
▁Ty	-4426
hend	-4427
olly	-4428
they	-4429
▁tea	-4430
▁uns	-4431
▁game	-4432
▁mult	-4433
ulated	-4434
▁catch	-4435
▁elder	-4436
▁plans	-4437
▁queen	-4438
▁shade	-4439
▁whist	-4440
athered	-4441
▁handed	-4442
▁Woodman	-4443
▁constit	-4444
▁prepare	-4445
▁request	-4446
▁sufficient	-4447
▁acquaintance	-4448
ky	-4449
raw	-4450
▁Sw	-4451
iece	-4452
road	-4453
▁Ant	-4454
▁Thy	-4455
▁clim	-4456
▁crit	-4457
▁feat	-4458
▁cover	-4459
▁frown	-4460
▁lovely	-4461
▁secure	-4462
▁waters	-4463
▁equally	-4464
▁dangerous	-4465
▁Courfeyrac	-4466
▁continually	-4467
AP	-4468
asc	-4469
esh	-4470
aign	-4471
▁Did	-4472
eding	-4473
▁heat	-4474
▁wand	-4475
rehend	-4476
▁named	-4477
▁subst	-4478
lection	-4479
▁volunt	-4480
▁actions	-4481
▁whisper	-4482
▁contempl	-4483
▁relation	-4484
▁resolved	-4485
▁signific	-4486
▁intention	-4487
▁recognize	-4488
US	-4489
hus	-4490
▁Aj	-4491
▁om	-4492
hand	-4493
▁Each	-4494
▁Hark	-4495
▁shed	-4496
▁First	-4497
▁shape	-4498
▁skies	-4499
▁wings	-4500
ational	-4501
▁Heaven	-4502
▁fifteen	-4503
▁shining	-4504
▁interesting	-4505
).	-4506
02	-4507
Sh	-4508
▁i	-4509
ait	-4510
▁[_	-4511
oses	-4512
quod	-4513
avalc	-4514
▁Kung	-4515
▁exch	-4516
▁glit	-4517
▁check	-4518
▁lance	-4519
▁ocean	-4520
▁stick	-4521
▁column	-4522
▁gained	-4523
▁gazing	-4524
▁hidden	-4525
▁resist	-4526
▁finding	-4527
▁gathered	-4528
▁original	-4529
▁treasure	-4530
▁returning	-4531
Be	-4532
,--	-4533
ann	-4534
._--	-4535
rose	-4536
thur	-4537
unch	-4538
▁Pol	-4539
▁insp	-4540
▁lack	-4541
▁aloud	-4542
▁facts	-4543
▁Pequod	-4544
▁guests	-4545
▁phrase	-4546
▁social	-4547
▁leaning	-4548
▁travell	-4549
▁univers	-4550
▁weather	-4551
▁peasants	-4552
▁personal	-4553
▁somewhere	-4554
▁distributing	-4555
ims	-4556
chant	-4557
ighed	-4558
▁dign	-4559
▁text	-4560
▁Again	-4561
▁Daisy	-4562
▁Lydia	-4563
▁spark	-4564
▁timid	-4565
▁upper	-4566
▁Russia	-4567
▁cheeks	-4568
▁fortun	-4569
▁leading	-4570
▁attached	-4571
▁importance	-4572
igs	-4573
▁je	-4574
Very	-4575
▁ere	-4576
▁rub	-4577
▁diss	-4578
▁lest	-4579
▁pill	-4580
▁poison	-4581
▁wholly	-4582
▁Grecian	-4583
▁Section	-4584
▁warrior	-4585
▁stronger	-4586
ène	-4587
▁[2	-4588
▁Maj	-4589
▁bal	-4590
▁lit	-4591
▁True	-4592
▁wond	-4593
▁horiz	-4594
▁defend	-4595
▁strang	-4596
▁correct	-4597
▁located	-4598
avalcanti	-4599
▁touching	-4600
▁creatures	-4601
iam	-4602
then	-4603
▁ens	-4604
▁ing	-4605
orted	-4606
rated	-4607
▁Have	-4608
▁sway	-4609
▁major	-4610
▁wants	-4611
▁coffin	-4612
▁stairs	-4613
▁surely	-4614
▁chapter	-4615
▁retired	-4616
▁argument	-4617
▁generous	-4618
▁Bolkónski	-4619
▁confusion	-4620
▁injustice	-4621
▁intellect	-4622
▁sacrifice	-4623
ope	-4624
work	-4625
▁Ali	-4626
▁Ber	-4627
▁ren	-4628
inate	-4629
▁bill	-4630
▁drop	-4631
▁cries	-4632
▁dared	-4633
▁mourn	-4634
▁straw	-4635
▁native	-4636
▁played	-4637
▁millions	-4638
▁sentence	-4639
▁Alexander	-4640
▁lightning	-4641
▁Cavalcanti	-4642
▁VI	-4643
herd	-4644
rily	-4645
▁tear	-4646
▁wear	-4647
ondret	-4648
▁cabin	-4649
▁flame	-4650
▁style	-4651
▁assure	-4652
▁savage	-4653
▁thirst	-4654
▁campaign	-4655
▁employed	-4656
▁magnific	-4657
▁brilliant	-4658
▁astonishment	-4659
gan	-4660
omy	-4661
orse	-4662
▁New	-4663
▁mal	-4664
ugust	-4665
▁Once	-4666
▁obst	-4667
▁subm	-4668
▁ghost	-4669
▁knife	-4670
▁Arthur	-4671
▁gently	-4672
▁remind	-4673
▁Jondret	-4674
▁calling	-4675
▁entreat	-4676
▁inspect	-4677
▁immortal	-4678
▁pointing	-4679
▁powerful	-4680
▁acquainted	-4681
▁destruction	-4682
ival	-4683
▁Coss	-4684
▁reck	-4685
ogether	-4686
▁animal	-4687
▁buried	-4688
▁centre	-4689
▁tumult	-4690
▁bearing	-4691
▁inhabit	-4692
▁nations	-4693
▁Gla	-4694
▁Bert	-4695
▁card	-4696
▁edge	-4697
▁gray	-4698
▁thor	-4699
▁flood	-4700
▁pause	-4701
▁sheep	-4702
▁cousin	-4703
▁eBooks	-4704
▁joined	-4705
▁medium	-4706
▁refuse	-4707
▁strike	-4708
Monsieur	-4709
▁Cossack	-4710
▁muttered	-4711
vi	-4712
eur	-4713
OMEO	-4714
book	-4715
eral	-4716
ilty	-4717
rict	-4718
oting	-4719
élène	-4720
▁rope	-4721
anches	-4722
lished	-4723
roclus	-4724
uments	-4725
▁ROMEO	-4726
▁boots	-4727
▁prize	-4728
▁disapp	-4729
▁driven	-4730
▁exceed	-4731
▁stones	-4732
▁Perhaps	-4733
▁desired	-4734
▁enemies	-4735
▁concerned	-4736
▁contained	-4737
yn	-4738
apt	-4739
ris	-4740
thy	-4741
▁bor	-4742
▁saf	-4743
▁wel	-4744
iture	-4745
▁Ajax	-4746
▁helm	-4747
umbled	-4748
▁During	-4749
▁aspect	-4750
▁eating	-4751
▁kindly	-4752
▁picture	-4753
▁kindness	-4754
▁minister	-4755
▁delighted	-4756
▁increased	-4757
was	-4758
▁vic	-4759
orous	-4760
▁term	-4761
▁moral	-4762
▁toler	-4763
▁castle	-4764
▁playing	-4765
▁ignorant	-4766
▁committed	-4767
▁remaining	-4768
▁represent	-4769
Don	-4770
ett	-4771
ips	-4772
ode	-4773
▁RE	-4774
▁ban	-4775
▁log	-4776
▁shr	-4777
▁wid	-4778
icing	-4779
opher	-4780
uccio	-4781
udden	-4782
▁bree	-4783
▁diam	-4784
▁fame	-4785
▁fulf	-4786
▁built	-4787
▁falls	-4788
respond	-4789
▁applic	-4790
▁bottle	-4791
▁jumped	-4792
▁sympath	-4793
▁extended	-4794
▁thorough	-4795
8.	-4796
ít	-4797
Pro	-4798
ral	-4799
sey	-4800
uzz	-4801
▁Bal	-4802
▁bos	-4803
▁kit	-4804
acity	-4805
vious	-4806
▁rush	-4807
▁Robin	-4808
▁fetch	-4809
▁ident	-4810
▁lover	-4811
▁weeks	-4812
▁Hélène	-4813
▁enthus	-4814
▁origin	-4815
▁render	-4816
▁capital	-4817
▁pretend	-4818
▁raising	-4819
▁working	-4820
▁adjutant	-4821
▁Patroclus	-4822
▁stretched	-4823
▁distribution	-4824
tis	-4825
▁Oz	-4826
itive	-4827
▁hurt	-4828
▁rust	-4829
keeper	-4830
▁exerc	-4831
▁owner	-4832
▁spend	-4833
▁fourth	-4834
▁prayer	-4835
aughters	-4836
▁proport	-4837
▁sisters	-4838
▁Martians	-4839
AM	-4840
ai	-4841
zed	-4842
▁OR	-4843
▁ax	-4844
gged	-4845
acles	-4846
▁grey	-4847
▁Water	-4848
▁arose	-4849
▁grate	-4850
onsense	-4851
▁needed	-4852
▁accident	-4853
▁branches	-4854
▁distress	-4855
▁Bertuccio	-4856
▁mountains	-4857
▁relations	-4858
▁correspond	-4859
▁impression	-4860
▁imagination	-4861
uf	-4862
geon	-4863
lope	-4864
osen	-4865
▁YOU	-4866
oused	-4867
▁Pont	-4868
▁yard	-4869
▁level	-4870
▁waist	-4871
▁wretch	-4872
▁Rostóvs	-4873
▁heavens	-4874
▁kitchen	-4875
▁mounted	-4876
▁Republic	-4877
▁actually	-4878
▁becoming	-4879
▁Jondrette	-4880
▁permitted	-4881
bid	-4882
ium	-4883
▁TH	-4884
rier	-4885
....”	-4886
inese	-4887
place	-4888
▁Glauc	-4889
▁cruel	-4890
▁harpo	-4891
▁kings	-4892
▁purch	-4893
▁serve	-4894
▁skill	-4895
▁swell	-4896
▁value	-4897
▁worst	-4898
▁candle	-4899
▁depths	-4900
▁anxiety	-4901
▁seeking	-4902
▁features	-4903
▁daughters	-4904
▁protected	-4905
gu	-4906
com	-4907
▁Hsi	-4908
▁arch	-4909
▁decl	-4910
▁link	-4911
▁plun	-4912
▁sour	-4913
illery	-4914
▁bride	-4915
▁caval	-4916
▁sorts	-4917
▁Harker	-4918
▁dreams	-4919
▁guilty	-4920
▁sevent	-4921
▁thanks	-4922
▁Through	-4923
▁colonel	-4924
▁eagerly	-4925
▁hanging	-4926
▁measure	-4927
▁dressing	-4928
▁whenever	-4929
▁companions	-4930
itle	-4931
▁pin	-4932
lease	-4933
▁excl	-4934
▁toss	-4935
▁cases	-4936
▁swall	-4937
▁wrath	-4938
▁Mother	-4939
▁afford	-4940
eanwhile	-4941
▁Chinese	-4942
▁pursued	-4943
▁instance	-4944
▁unfortunate	-4945
._]	-4946
pro	-4947
who	-4948
▁Cat	-4949
▁pow	-4950
atión	-4951
▁Bagr	-4952
▁Hill	-4953
▁arts	-4954
▁cler	-4955
▁cott	-4956
▁lock	-4957
▁pant	-4958
▁coast	-4959
▁paces	-4960
▁uncle	-4961
uddenly	-4962
▁contro	-4963
▁couple	-4964
▁gather	-4965
▁observ	-4966
▁proble	-4967
▁animals	-4968
▁details	-4969
▁surface	-4970
▁maintain	-4971
▁Bagratión	-4972
▁frightful	-4973
▁naturally	-4974
;—	-4975
One	-4976
lev	-4977
▁NO	-4978
cent	-4979
mble	-4980
▁bid	-4981
▁bla	-4982
▁iss	-4983
▁sup	-4984
ourge	-4985
▁Next	-4986
▁absor	-4987
▁flesh	-4988
▁infer	-4989
▁mater	-4990
▁merry	-4991
▁princip	-4992
▁reasons	-4993
▁cheerful	-4994
▁composed	-4995
▁staircase	-4996
Sir	-4997
eng	-4998
key	-4999
new	-5000
quis	-5001
▁reb	-5002
aries	-5003
▁busy	-5004
▁vers	-5005
acious	-5006
ashing	-5007
▁Romeo	-5008
▁bones	-5009
▁erect	-5010
▁frame	-5011
▁sewer	-5012
▁Street	-5013
onscious	-5014
▁eternal	-5015
▁follows	-5016
▁produce	-5017
ification	-5018
▁innocent	-5019
▁gradually	-5020
▁altogether	-5021
▁Christopher	-5022
▁distinguished	-5023
ese	-5024
urd	-5025
vol	-5026
▁BE	-5027
▁JU	-5028
whel	-5029
▁heap	-5030
▁rank	-5031
▁Shall	-5032
▁bosom	-5033
▁gates	-5034
▁tempt	-5035
▁safety	-5036
▁sailor	-5037
▁wooden	-5038
▁capable	-5039
▁compass	-5040
▁contempt	-5041
▁desperate	-5042
▁political	-5043
▁vengeance	-5044
▁conception	-5045
▁principles	-5046
!"	-5047
▁Il	-5048
With	-5049
aria	-5050
▁Pen	-5051
▁ate	-5052
acher	-5053
oping	-5054
urity	-5055
▁lear	-5056
▁swim	-5057
idable	-5058
▁George	-5059
▁chosen	-5060
▁convey	-5061
▁steeds	-5062
▁assumed	-5063
▁hideous	-5064
▁sailors	-5065
▁Moreover	-5066
▁Pávlovna	-5067
▁examined	-5068
▁instruct	-5069
▁physical	-5070
▁Nevertheless	-5071
▁intelligence	-5072
AG	-5073
aul	-5074
iest	-5075
ores	-5076
▁Han	-5077
▁oil	-5078
▁rib	-5079
▁glim	-5080
▁tale	-5081
▁wept	-5082
▁indul	-5083
ulation	-5084
▁armies	-5085
▁disord	-5086
▁fisher	-5087
▁flames	-5088
▁desires	-5089
▁existed	-5090
▁manners	-5091
▁painful	-5092
▁admitted	-5093
▁citizens	-5094
▁informed	-5095
▁revolution	-5096
▁ta	-5097
zing	-5098
▁Eury	-5099
▁seas	-5100
▁beings	-5101
▁paying	-5102
▁treated	-5103
▁mistress	-5104
▁Meanwhile	-5105
▁execution	-5106
fs	-5107
io	-5108
TION	-5109
aced	-5110
ieve	-5111
▁PRO	-5112
▁cru	-5113
▁lan	-5114
▁pan	-5115
bourg	-5116
ishes	-5117
▁inex	-5118
▁wake	-5119
▁wing	-5120
asures	-5121
▁Julie	-5122
▁fears	-5123
▁overt	-5124
▁batter	-5125
▁encoun	-5126
▁thinks	-5127
▁convict	-5128
▁procure	-5129
▁remarks	-5130
▁shudder	-5131
▁Russians	-5132
▁activity	-5133
▁belonged	-5134
▁slightly	-5135
▁struggle	-5136
▁connected	-5137
▁connection	-5138
!_	-5139
Of	-5140
een	-5141
▁oh	-5142
iner	-5143
▁bew	-5144
▁mud	-5145
estic	-5146
inder	-5147
▁Tell	-5148
▁flat	-5149
▁holy	-5150
▁inde	-5151
▁rout	-5152
pelled	-5153
▁cours	-5154
▁drunk	-5155
▁loose	-5156
▁spare	-5157
Because	-5158
ization	-5159
▁brothers	-5160
▁declared	-5161
▁presents	-5162
▁trembled	-5163
▁astonished	-5164
▁friendship	-5165
VE	-5166
.’”	-5167
▁Ho	-5168
arks	-5169
ette	-5170
uced	-5171
▁Red	-5172
isten	-5173
▁Ital	-5174
▁mate	-5175
▁torn	-5176
ouring	-5177
▁mercy	-5178
▁reser	-5179
▁ridic	-5180
▁crying	-5181
▁excuse	-5182
▁flower	-5183
▁murder	-5184
kerchief	-5185
▁driving	-5186
▁observe	-5187
▁anywhere	-5188
▁attacked	-5189
▁generals	-5190
▁apartment	-5191
▁satisfaction	-5192
Av	-5193
▁(_	-5194
▁Su	-5195
▁bab	-5196
▁bou	-5197
igned	-5198
▁shru	-5199
▁active	-5200
▁attrib	-5201
▁consid	-5202
▁figures	-5203
▁furious	-5204
▁refused	-5205
▁humanity	-5206
▁involunt	-5207
▁Sometimes	-5208
▁abandoned	-5209
▁artillery	-5210
▁reflection	-5211
▁]	-5212
isp	-5213
áty	-5214
▁Ro	-5215
ares	-5216
▁Mag	-5217
▁fer	-5218
iance	-5219
umber	-5220
arrass	-5221
unning	-5222
▁block	-5223
▁nurse	-5224
▁squad	-5225
▁manage	-5226
▁porter	-5227
▁chimney	-5228
▁quitted	-5229
▁Suddenly	-5230
▁pleasures	-5231
▁proceeded	-5232
▁resolution	-5233
▁possibility	-5234
gl	-5235
ike	-5236
nal	-5237
tel	-5238
▁Alp	-5239
▁hal	-5240
▁qui	-5241
▁inev	-5242
▁pave	-5243
▁pipe	-5244
▁sank	-5245
▁skin	-5246
ivered	-5247
▁White	-5248
▁weary	-5249
▁palace	-5250
▁repeat	-5251
▁created	-5252
▁gesture	-5253
▁thither	-5254
▁silently	-5255
▁receiving	-5256
▁assistance	-5257
▁nevertheless	-5258
AT	-5259
By	-5260
pap	-5261
▁AN	-5262
▁ty	-5263
enes	-5264
rien	-5265
▁wet	-5266
agger	-5267
itate	-5268
▁Thou	-5269
▁east	-5270
▁nerv	-5271
▁corpse	-5272
▁leaned	-5273
▁poetry	-5274
▁Another	-5275
▁plainly	-5276
▁revenge	-5277
▁slaught	-5278
formation	-5279
▁bringing	-5280
▁commands	-5281
▁constant	-5282
▁material	-5283
▁overwhel	-5284
▁condemned	-5285
▁doubtless	-5286
▁exception	-5287
▁movements	-5288
▁comprehend	-5289
▁frequently	-5290
▁remarkable	-5291
3,	-5292
Ren	-5293
▁Mi	-5294
eers	-5295
fall	-5296
lier	-5297
▁Duc	-5298
alous	-5299
ology	-5300
rived	-5301
▁High	-5302
▁hell	-5303
▁ended	-5304
▁flung	-5305
▁hills	-5306
▁rever	-5307
▁arrive	-5308
▁assass	-5309
▁bodies	-5310
▁coward	-5311
▁cavalry	-5312
▁happens	-5313
▁rolling	-5314
▁Countess	-5315
▁vanished	-5316
▁conditions	-5317
▁handkerchief	-5318
aeus	-5319
amma	-5320
aunt	-5321
seen	-5322
▁fem	-5323
iable	-5324
▁Gard	-5325
▁mort	-5326
▁pace	-5327
▁shel	-5328
▁sole	-5329
Renaud	-5330
▁signs	-5331
▁steel	-5332
▁Austri	-5333
▁abrupt	-5334
▁extent	-5335
▁ashamed	-5336
▁reproach	-5337
▁agreeable	-5338
▁embarrass	-5339
▁exhausted	-5340
wl	-5341
Mad	-5342
len	-5343
kins	-5344
▁VII	-5345
ician	-5346
▁Phil	-5347
▁Pres	-5348
▁lion	-5349
▁poem	-5350
inging	-5351
licity	-5352
▁Sperm	-5353
▁avail	-5354
▁illum	-5355
▁shudd	-5356
umbling	-5357
▁estate	-5358
▁Frenchman	-5359
▁interests	-5360
AS	-5361
eps	-5362
rov	-5363
ilst	-5364
udes	-5365
well	-5366
▁dil	-5367
▁keen	-5368
▁awful	-5369
▁final	-5370
▁hoped	-5371
▁sport	-5372
▁waste	-5373
▁wheels	-5374
▁diamond	-5375
▁foreign	-5376
▁precious	-5377
▁reflected	-5378
▁apparently	-5379
oe	-5380
RAN	-5381
hib	-5382
arly	-5383
aved	-5384
umes	-5385
▁Sim	-5386
asket	-5387
ental	-5388
átych	-5389
▁musk	-5390
▁Italy	-5391
▁arise	-5392
▁cease	-5393
▁fleet	-5394
▁refer	-5395
▁solid	-5396
utation	-5397
▁Nestor	-5398
▁betray	-5399
▁stared	-5400
▁managed	-5401
▁striking	-5402
▁ignorance	-5403
▁addressing	-5404
▁previously	-5405
elt	-5406
hic	-5407
omen	-5408
ugén	-5409
▁jew	-5410
alled	-5411
▁pall	-5412
▁writ	-5413
liance	-5414
ugénie	-5415
▁Penel	-5416
▁notes	-5417
▁rocks	-5418
▁spies	-5419
▁redoub	-5420
▁amongst	-5421
▁anguish	-5422
▁hostile	-5423
▁setting	-5424
▁breaking	-5425
▁coachman	-5426
▁division	-5427
▁included	-5428
▁presently	-5429
▁separated	-5430
fa	-5431
loo	-5432
mít	-5433
ints	-5434
lebr	-5435
▁Sir	-5436
▁hol	-5437
▁pot	-5438
▁dazz	-5439
▁test	-5440
▁badly	-5441
▁guide	-5442
▁recom	-5443
▁uncom	-5444
▁choice	-5445
▁nation	-5446
▁blessed	-5447
▁careful	-5448
▁chariot	-5449
▁younger	-5450
▁glancing	-5451
▁weakness	-5452
▁breathing	-5453
ECT	-5454
ayd	-5455
stem	-5456
uing	-5457
▁lin	-5458
▁nin	-5459
▁spl	-5460
raced	-5461
▁Look	-5462
▁tend	-5463
▁tent	-5464
▁boast	-5465
▁woods	-5466
▁firing	-5467
▁hunger	-5468
▁intend	-5469
▁strain	-5470
▁Majesty	-5471
▁weeping	-5472
▁willing	-5473
▁Alpátych	-5474
▁attitude	-5475
▁numerous	-5476
▁conclusion	-5477
▁inhabitants	-5478
▁unconscious	-5479
De	-5480
rit	-5481
ibly	-5482
kháy	-5483
▁dig	-5484
loved	-5485
▁elev	-5486
▁hamm	-5487
▁solic	-5488
▁south	-5489
▁stuff	-5490
▁Mikháy	-5491
▁causes	-5492
▁celebr	-5493
▁excess	-5494
▁failed	-5495
▁prepar	-5496
▁thread	-5497
▁uneasy	-5498
▁utmost	-5499
▁closely	-5500
▁curtain	-5501
▁objects	-5502
▁faithful	-5503
▁meantime	-5504
▁midnight	-5505
▁Bonaparte	-5506
▁Everything	-5507
ns	-5508
rat	-5509
▁Di	-5510
chan	-5511
rous	-5512
▁aut	-5513
aydée	-5514
rence	-5515
▁farm	-5516
▁grie	-5517
▁meat	-5518
▁mood	-5519
▁size	-5520
isible	-5521
▁flank	-5522
▁limbs	-5523
▁north	-5524
▁begins	-5525
▁belief	-5526
▁posted	-5527
▁vision	-5528
▁devoted	-5529
▁lantern	-5530
▁usually	-5531
▁wearing	-5532
▁inclined	-5533
▁violence	-5534
▁collection	-5535
,)	-5536
Did	-5537
bye	-5538
his	-5539
kin	-5540
zes	-5541
▁ec	-5542
▁...	-5543
▁Roy	-5544
▁Sat	-5545
▁ard	-5546
▁woe	-5547
onder	-5548
▁June	-5549
▁Mars	-5550
▁deed	-5551
▁mach	-5552
▁mart	-5553
▁shop	-5554
rienne	-5555
▁yards	-5556
▁chiefs	-5557
▁colour	-5558
▁larger	-5559
▁worked	-5560
▁Glaucon	-5561
▁Trojans	-5562
▁conquer	-5563
▁council	-5564
▁kingdom	-5565
▁affected	-5566
▁daylight	-5567
▁nonsense	-5568
▁qualities	-5569
▁consequence	-5570
▁distinguish	-5571
An	-5572
▁Pri	-5573
▁pil	-5574
▁shi	-5575
▁vex	-5576
▁knee	-5577
▁nodd	-5578
▁prey	-5579
▁shep	-5580
▁Chang	-5581
▁Marse	-5582
▁clock	-5583
▁drank	-5584
▁eaten	-5585
▁revol	-5586
▁wrink	-5587
itement	-5588
looking	-5589
▁footst	-5590
▁leader	-5591
▁praise	-5592
▁purple	-5593
▁rulers	-5594
▁stayed	-5595
▁tyrant	-5596
▁Eugénie	-5597
▁Italian	-5598
▁mystery	-5599
▁baroness	-5600
▁building	-5601
▁continue	-5602
▁formerly	-5603
▁perceive	-5604
▁formidable	-5605
▁Mikháylovna	-5606
Mé	-5607
Look	-5608
▁Des	-5609
▁etc	-5610
▁gif	-5611
▁ice	-5612
▁wra	-5613
▁Dmít	-5614
▁VIII	-5615
▁anch	-5616
▁cord	-5617
▁crack	-5618
▁feels	-5619
▁fires	-5620
▁manif	-5621
▁trial	-5622
▁branch	-5623
▁exists	-5624
▁sooner	-5625
▁taught	-5626
▁throne	-5627
▁alarmed	-5628
▁horizon	-5629
▁neglect	-5630
▁Waterloo	-5631
▁contrast	-5632
▁harpoone	-5633
▁reaching	-5634
▁upstairs	-5635
▁Bourienne	-5636
▁proportion	-5637
▁magnificent	-5638
ox	-5639
ads	-5640
dys	-5641
▁Má	-5642
cast	-5643
▁Rev	-5644
oring	-5645
ulate	-5646
▁Hans	-5647
▁Mich	-5648
▁Most	-5649
▁adop	-5650
▁Which	-5651
▁agony	-5652
▁angel	-5653
▁renew	-5654
▁stiff	-5655
▁trick	-5656
▁bourge	-5657
▁finish	-5658
▁fought	-5659
▁nodded	-5660
▁consent	-5661
▁contrad	-5662
▁dancing	-5663
▁nervous	-5664
▁related	-5665
▁furniture	-5666
▁precisely	-5667
▁traveller	-5668
▁conviction	-5669
▁historians	-5670
▁description	-5671
Re	-5672
Un	-5673
Tis	-5674
▁Mo	-5675
ache	-5676
eric	-5677
gent	-5678
opch	-5679
otte	-5680
ryph	-5681
▁liv	-5682
cians	-5683
osure	-5684
▁Sept	-5685
▁quit	-5686
▁wave	-5687
▁March	-5688
▁blows	-5689
▁queer	-5690
▁swear	-5691
▁August	-5692
▁wouldn	-5693
▁harmony	-5694
▁showing	-5695
▁comrades	-5696
▁appointed	-5697
▁immediate	-5698
▁preceding	-5699
▁distribute	-5700
▁excitement	-5701
▁circumstance	-5702
▁Abb	-5703
▁bas	-5704
▁env	-5705
▁rese	-5706
▁veil	-5707
▁wasn	-5708
istrib	-5709
▁armed	-5710
▁beard	-5711
▁disci	-5712
▁grant	-5713
▁needs	-5714
▁shone	-5715
▁slave	-5716
▁hungry	-5717
▁intent	-5718
▁wounds	-5719
▁corrupt	-5720
▁dragged	-5721
▁fearful	-5722
▁forever	-5723
▁mission	-5724
▁portion	-5725
▁shaking	-5726
▁Rostopch	-5727
▁throwing	-5728
▁announced	-5729
▁expecting	-5730
▁universal	-5731
▁distributed	-5732
LET	-5733
pes	-5734
íts	-5735
ived	-5736
▁Vir	-5737
▁unp	-5738
aping	-5739
▁City	-5740
▁abst	-5741
▁obsc	-5742
▁ours	-5743
▁toil	-5744
▁artic	-5745
▁bench	-5746
▁democ	-5747
▁fruit	-5748
▁stout	-5749
▁Guards	-5750
▁Seward	-5751
▁helped	-5752
▁license	-5753
Certainly	-5754
▁crossing	-5755
▁deceived	-5756
▁moreover	-5757
▁subjects	-5758
▁guardians	-5759
alf	-5760
amm	-5761
▁El	-5762
lict	-5763
ulse	-5764
vell	-5765
▁ric	-5766
Méran	-5767
ieved	-5768
rigny	-5769
▁cool	-5770
▁sell	-5771
▁subl	-5772
▁vale	-5773
urance	-5774
▁About	-5775
▁Champ	-5776
▁desir	-5777
▁fatig	-5778
▁poets	-5779
▁shows	-5780
▁winds	-5781
▁absent	-5782
▁burned	-5783
▁indign	-5784
▁magist	-5785
▁abandon	-5786
▁fellows	-5787
▁replace	-5788
▁utterly	-5789
▁visitor	-5790
▁wishing	-5791
▁goodness	-5792
▁heavenly	-5793
▁thoroughly	-5794
▁consciousness	-5795
sc	-5796
ipp	-5797
ses	-5798
▁ge	-5799
asse	-5800
▁WAR	-5801
▁cro	-5802
▁fed	-5803
▁unm	-5804
▁Nant	-5805
▁flag	-5806
▁sear	-5807
riages	-5808
▁Witch	-5809
▁trace	-5810
Avrigny	-5811
ourable	-5812
▁corrid	-5813
▁insult	-5814
▁locked	-5815
▁loudly	-5816
▁retire	-5817
▁shouts	-5818
▁dignity	-5819
▁foolish	-5820
▁galleys	-5821
▁quarters	-5822
▁September	-5823
▁advancing	-5824
▁Rostopchín	-5825
▁intellectual	-5826
▁Bl	-5827
ollo	-5828
omin	-5829
racy	-5830
wood	-5831
▁Tin	-5832
▁som	-5833
▁wag	-5834
chair	-5835
istic	-5836
rious	-5837
▁East	-5838
▁JULI	-5839
▁oath	-5840
▁risk	-5841
▁bears	-5842
▁chain	-5843
▁drops	-5844
▁fired	-5845
▁guest	-5846
▁teach	-5847
▁tramp	-5848
▁halted	-5849
▁hatred	-5850
▁beloved	-5851
▁absorbed	-5852
▁recalled	-5853
▁invisible	-5854
▁suggested	-5855
▁Marseilles	-5856
▁pronounced	-5857
▁considering	-5858
▁17	-5859
Take	-5860
▁tal	-5861
atory	-5862
pleas	-5863
uries	-5864
▁Cont	-5865
▁crim	-5866
▁ends	-5867
▁sofa	-5868
▁tore	-5869
▁west	-5870
▁whit	-5871
hether	-5872
levard	-5873
▁awake	-5874
▁brief	-5875
▁drown	-5876
▁sheet	-5877
▁sperm	-5878
▁JULIET	-5879
▁consol	-5880
▁mechan	-5881
▁nobody	-5882
▁reward	-5883
▁system	-5884
▁throng	-5885
▁destiny	-5886
▁disturb	-5887
▁obscure	-5888
▁quality	-5889
▁religion	-5890
▁bourgeois	-5891
▁performed	-5892
.—	-5893
dy	-5894
off	-5895
▁iv	-5896
▁od	-5897
izzy	-5898
poch	-5899
thac	-5900
when	-5901
arted	-5902
▁mild	-5903
▁seam	-5904
atched	-5905
leness	-5906
versed	-5907
▁clasp	-5908
▁devel	-5909
▁linen	-5910
▁rules	-5911
▁tells	-5912
ounding	-5913
▁Haydée	-5914
▁Island	-5915
▁attain	-5916
▁battal	-5917
▁pursue	-5918
▁cunning	-5919
▁fastened	-5920
▁glorious	-5921
▁governor	-5922
▁Nantucket	-5923
▁concluded	-5924
eem	-5925
▁ST	-5926
Will	-5927
irty	-5928
sing	-5929
▁HIS	-5930
▁Mer	-5931
▁hut	-5932
▁isn	-5933
irect	-5934
▁rang	-5935
▁trif	-5936
▁flash	-5937
▁maids	-5938
▁porch	-5939
▁stoop	-5940
▁vehic	-5941
Project	-5942
▁Turtle	-5943
▁couldn	-5944
▁duties	-5945
▁feeble	-5946
▁softly	-5947
▁strict	-5948
▁current	-5949
▁disappo	-5950
▁plunged	-5951
▁steward	-5952
▁infantry	-5953
▁gratitude	-5954
EM	-5955
IG	-5956
sp	-5957
bly	-5958
▁IX	-5959
laus	-5960
▁bag	-5961
▁unb	-5962
agues	-5963
brary	-5964
▁Sund	-5965
▁heed	-5966
▁Baron	-5967
▁Madam	-5968
▁apply	-5969
▁chase	-5970
▁fanci	-5971
▁banker	-5972
▁incess	-5973
▁signal	-5974
▁angrily	-5975
▁divided	-5976
▁pierced	-5977
▁unpleas	-5978
▁editions	-5979
▁principal	-5980
sed	-5981
!...	-5982
uits	-5983
veni	-5984
▁Ven	-5985
▁tot	-5986
▁Many	-5987
▁Soon	-5988
▁gown	-5989
▁grim	-5990
▁hang	-5991
▁oars	-5992
▁puzz	-5993
▁sous	-5994
ential	-5995
▁Ithac	-5996
▁agent	-5997
▁hunts	-5998
▁stage	-5999
▁urged	-6000
▁Apollo	-6001
▁powder	-6002
▁popular	-6003
▁rushing	-6004
▁whereas	-6005
▁agitated	-6006
▁pavement	-6007
▁terrified	-6008
▁admiration	-6009
▁introduced	-6010
AB	-6011
HI	-6012
ael	-6013
don	-6014
pin	-6015
vet	-6016
ancy	-6017
llen	-6018
otes	-6019
▁Emp	-6020
▁blo	-6021
▁non	-6022
▁rat	-6023
eyore	-6024
▁Bour	-6025
▁cher	-6026
▁jave	-6027
▁proc	-6028
▁tact	-6029
▁based	-6030
▁brand	-6031
▁finds	-6032
▁peril	-6033
▁Americ	-6034
▁Dmítri	-6035
▁bought	-6036
▁deadly	-6037
▁detach	-6038
▁relief	-6039
▁respon	-6040
▁travel	-6041
▁victim	-6042
▁fancied	-6043
▁jealous	-6044
▁radiant	-6045
▁suggest	-6046
▁hastened	-6047
▁inferior	-6048
▁separate	-6049
▁visitors	-6050
▁consideration	-6051
—_	-6052
BER	-6053
box	-6054
rin	-6055
uns	-6056
Alas	-6057
evna	-6058
five	-6059
liad	-6060
énsk	-6061
▁Him	-6062
inity	-6063
otted	-6064
▁Mock	-6065
▁Till	-6066
▁dise	-6067
▁narr	-6068
▁angle	-6069
▁epoch	-6070
▁marsh	-6071
▁sadly	-6072
▁seize	-6073
▁brains	-6074
▁forbid	-6075
▁sighed	-6076
▁theory	-6077
▁bedroom	-6078
▁heavily	-6079
▁million	-6080
▁precaut	-6081
▁problem	-6082
▁drinking	-6083
▁galloped	-6084
▁practice	-6085
▁recommend	-6086
▁slightest	-6087
▁displaying	-6088
God	-6089
ITY	-6090
▁(1	-6091
oked	-6092
ágin	-6093
▁War	-6094
▁bay	-6095
▁tap	-6096
kward	-6097
overy	-6098
▁spec	-6099
ryphon	-6100
▁corps	-6101
▁irres	-6102
▁loves	-6103
▁title	-6104
▁energy	-6105
▁handle	-6106
▁rested	-6107
▁writer	-6108
lessness	-6109
▁attract	-6110
▁element	-6111
▁hussars	-6112
▁prayers	-6113
▁pursuit	-6114
▁quarrel	-6115
▁staring	-6116
▁friendly	-6117
▁judgment	-6118
▁pictures	-6119
▁probable	-6120
▁distinctly	-6121
▁profession	-6122
IR	-6123
_;	-6124
rya	-6125
uke	-6126
▁Dan	-6127
▁FOR	-6128
after	-6129
▁bows	-6130
▁disd	-6131
▁sang	-6132
▁sust	-6133
▁tied	-6134
▁unus	-6135
▁XVIII	-6136
▁awoke	-6137
▁outer	-6138
intment	-6139
▁season	-6140
▁squire	-6141
▁Colonel	-6142
▁forgive	-6143
▁patient	-6144
▁accomplished	-6145
▁sufficiently	-6146
3]	-6147
See	-6148
abe	-6149
bus	-6150
har	-6151
inc	-6152
tic	-6153
alty	-6154
lers	-6155
vest	-6156
▁Men	-6157
▁Pal	-6158
apsed	-6159
blanc	-6160
enter	-6161
eries	-6162
othed	-6163
▁caut	-6164
▁flow	-6165
▁page	-6166
▁ride	-6167
▁rosy	-6168
eptune	-6169
verted	-6170
▁bands	-6171
▁flock	-6172
▁ruler	-6173
itating	-6174
▁Eeyore	-6175
▁desert	-6176
▁dining	-6177
▁loving	-6178
▁poured	-6179
▁stroke	-6180
piration	-6181
▁awkward	-6182
▁consist	-6183
▁slipped	-6184
▁virtues	-6185
▁whaling	-6186
▁delicate	-6187
▁inspector	-6188
▁interested	-6189
rie	-6190
▁ep	-6191
text	-6192
▁Ara	-6193
▁Ter	-6194
▁cas	-6195
▁lat	-6196
▁rig	-6197
adise	-6198
amped	-6199
▁chin	-6200
▁doct	-6201
▁eleg	-6202
▁pred	-6203
▁prud	-6204
▁Roman	-6205
▁Would	-6206
▁brown	-6207
▁pains	-6208
erences	-6209
▁Balash	-6210
▁illust	-6211
▁invest	-6212
▁revere	-6213
▁select	-6214
sibility	-6215
▁anybody	-6216
▁crowded	-6217
▁deliber	-6218
▁invited	-6219
▁disgrace	-6220
▁troubled	-6221
▁requirements	-6222
[1	-6223
[2	-6224
ESS	-6225
éev	-6226
urre	-6227
▁183	-6228
▁odd	-6229
laced	-6230
▁Prov	-6231
▁bade	-6232
▁butt	-6233
▁flee	-6234
mother	-6235
▁Faria	-6236
▁ashes	-6237
▁doesn	-6238
▁organ	-6239
▁trous	-6240
▁vener	-6241
▁daring	-6242
▁dispos	-6243
▁prodig	-6244
▁source	-6245
▁Leblanc	-6246
▁beating	-6247
▁library	-6248
▁Penelope	-6249
▁disorder	-6250
▁imagined	-6251
▁murderer	-6252
▁preserve	-6253
▁resolute	-6254
▁sympathy	-6255
▁Christian	-6256
▁acknowled	-6257
▁household	-6258
▁indicated	-6259
▁intervals	-6260
▁ox	-6261
anth	-6262
odin	-6263
ques	-6264
▁Luc	-6265
▁ded	-6266
▁hyp	-6267
ilful	-6268
ulted	-6269
▁barb	-6270
▁impr	-6271
▁mead	-6272
▁tide	-6273
▁vall	-6274
▁Three	-6275
▁ahead	-6276
▁disch	-6277
▁dozen	-6278
▁obedi	-6279
▁plate	-6280
▁spout	-6281
▁valet	-6282
natural	-6283
▁Hatter	-6284
▁Ithaca	-6285
▁begged	-6286
▁lights	-6287
▁nights	-6288
▁partly	-6289
▁whilst	-6290
▁Gryphon	-6291
▁Neptune	-6292
▁consult	-6293
▁majesty	-6294
▁stories	-6295
▁creation	-6296
▁grateful	-6297
▁obtained	-6298
▁preserved	-6299
▁thousands	-6300
▁disposition	-6301
▁translation	-6302
rs	-6303
tr	-6304
cip	-6305
ded	-6306
gil	-6307
ili	-6308
lla	-6309
ymn	-6310
etto	-6311
▁vir	-6312
eless	-6313
▁Dick	-6314
▁anti	-6315
▁memb	-6316
▁milk	-6317
▁trap	-6318
master	-6319
▁Márya	-6320
▁borne	-6321
▁cloth	-6322
▁instr	-6323
▁purse	-6324
▁breeze	-6325
▁folded	-6326
▁loaded	-6327
▁parted	-6328
attering	-6329
▁concent	-6330
▁convuls	-6331
▁honours	-6332
▁obvious	-6333
▁reports	-6334
▁corridor	-6335
▁executed	-6336
▁engagement	-6337
.1	-6338
aon	-6339
oot	-6340
rog	-6341
ands	-6342
leus	-6343
▁buy	-6344
▁fac	-6345
▁lux	-6346
Never	-6347
odinó	-6348
▁ages	-6349
▁base	-6350
▁buck	-6351
▁cheek	-6352
▁image	-6353
▁landl	-6354
▁medic	-6355
▁quant	-6356
▁sixty	-6357
▁swept	-6358
▁highly	-6359
▁propri	-6360
▁weapon	-6361
▁knocked	-6362
▁suspend	-6363
▁torment	-6364
▁disturbed	-6365
▁philosophers	-6366
UL	-6367
cto	-6368
alls	-6369
hern	-6370
ovel	-6371
▁CAP	-6372
▁Cle	-6373
▁Tot	-6374
▁cel	-6375
anges	-6376
enger	-6377
ernal	-6378
ially	-6379
▁Span	-6380
▁Take	-6381
▁cere	-6382
▁gend	-6383
▁sunk	-6384
00,000	-6385
cribed	-6386
ctober	-6387
▁North	-6388
▁Spart	-6389
▁error	-6390
▁kinds	-6391
▁labor	-6392
▁naked	-6393
▁shake	-6394
amation	-6395
▁dishon	-6396
▁prompt	-6397
▁natures	-6398
▁supreme	-6399
▁overcome	-6400
▁starting	-6401
▁adventure	-6402
▁attracted	-6403
▁furnished	-6404
▁providing	-6405
▁recovered	-6406
▁slaughter	-6407
▁strangers	-6408
5]	-6409
ped	-6410
bits	-6411
utch	-6412
yard	-6413
▁Any	-6414
▁Arg	-6415
▁Bel	-6416
▁CON	-6417
▁dun	-6418
▁rom	-6419
▁spy	-6420
▁Abbé	-6421
▁brig	-6422
Father	-6423
▁Flask	-6424
▁Since	-6425
▁harsh	-6426
▁inner	-6427
▁whirl	-6428
ulating	-6429
▁courty	-6430
▁eldest	-6431
▁extrem	-6432
▁firmly	-6433
▁holder	-6434
▁applied	-6435
▁counter	-6436
▁funeral	-6437
▁sorrows	-6438
▁Borodinó	-6439
▁proposed	-6440
▁scattered	-6441
▁seriously	-6442
▁glittering	-6443
▁involuntarily	-6444
OL	-6445
UM	-6446
eg	-6447
▁Alc	-6448
emnon	-6449
erted	-6450
inent	-6451
ulars	-6452
▁halt	-6453
▁jack	-6454
▁prow	-6455
▁sche	-6456
▁soil	-6457
▁deeds	-6458
▁honey	-6459
▁mayor	-6460
▁price	-6461
Nothing	-6462
▁basket	-6463
▁ruined	-6464
▁shades	-6465
▁copying	-6466
▁nearest	-6467
▁painted	-6468
▁sending	-6469
▁sounded	-6470
▁visited	-6471
▁animated	-6472
▁collected	-6473
▁Dmítrievna	-6474
▁observation	-6475
occ	-6476
▁10	-6477
ENCE	-6478
icip	-6479
iour	-6480
itty	-6481
reek	-6482
▁Old	-6483
▁Pre	-6484
▁gla	-6485
▁row	-6486
Thank	-6487
ashes	-6488
▁Vamp	-6489
▁aged	-6490
▁deem	-6491
▁encl	-6492
▁vice	-6493
▁webs	-6494
estial	-6495
ilight	-6496
▁Priam	-6497
▁polic	-6498
▁stead	-6499
▁tight	-6500
▁tower	-6501
▁views	-6502
amemnon	-6503
enelaus	-6504
▁Little	-6505
▁polite	-6506
▁riding	-6507
▁smooth	-6508
▁status	-6509
▁Michael	-6510
▁October	-6511
▁defence	-6512
▁sincere	-6513
▁acquired	-6514
▁compared	-6515
▁conflict	-6516
▁evidence	-6517
▁intimate	-6518
▁agitation	-6519
▁Revolution	-6520
4]	-6521
6]	-6522
8]	-6523
aph	-6524
arf	-6525
pet	-6526
sec	-6527
Just	-6528
ools	-6529
rive	-6530
your	-6531
▁***	-6532
▁Chi	-6533
▁Kar	-6534
▁dip	-6535
▁hit	-6536
▁owe	-6537
▁Cors	-6538
▁alas	-6539
▁mant	-6540
▁nois	-6541
▁nurs	-6542
▁temp	-6543
olénsk	-6544
orable	-6545
▁fifth	-6546
▁gifts	-6547
▁haven	-6548
▁liter	-6549
raction	-6550
▁accent	-6551
▁altern	-6552
▁disple	-6553
▁incred	-6554
▁shared	-6555
▁welcome	-6556
▁armchair	-6557
▁arrested	-6558
▁monsieur	-6559
▁restored	-6560
▁summoned	-6561
▁carriages	-6562
▁completed	-6563
▁courtyard	-6564
▁extremely	-6565
▁prevented	-6566
▁constantly	-6567
▁historical	-6568
▁reasonable	-6569
▁throughout	-6570
Can	-6571
Ind	-6572
▁Er	-6573
erre	-6574
iasm	-6575
more	-6576
▁Cor	-6577
▁irr	-6578
atisf	-6579
irmed	-6580
▁fain	-6581
▁unin	-6582
escrib	-6583
▁South	-6584
▁Thras	-6585
▁folly	-6586
▁leads	-6587
inction	-6588
▁defeat	-6589
▁interf	-6590
▁lament	-6591
▁losing	-6592
▁propos	-6593
▁senses	-6594
▁series	-6595
▁cutting	-6596
▁members	-6597
▁smoking	-6598
▁stretch	-6599
▁sublime	-6600
▁suspect	-6601
▁Smolénsk	-6602
▁bestowed	-6603
▁cloister	-6604
▁independ	-6605
▁indescrib	-6606
▁Englishman	-6607
7]	-6608
”—	-6609
tree	-6610
▁cla	-6611
lotte	-6612
orney	-6613
ograph	-6614
rained	-6615
▁Helen	-6616
▁amuse	-6617
▁mouse	-6618
▁recon	-6619
▁sails	-6620
▁thine	-6621
▁vault	-6622
▁vivid	-6623
fulness	-6624
▁hoarse	-6625
▁plenty	-6626
▁resign	-6627
▁sailed	-6628
▁unlike	-6629
▁Without	-6630
▁chiefly	-6631
▁crushed	-6632
▁tremble	-6633
▁disclaim	-6634
▁hitherto	-6635
▁mournful	-6636
▁prospect	-6637
▁reported	-6638
▁solitary	-6639
▁trousers	-6640
▁hurriedly	-6641
▁violently	-6642
▁unpleasant	-6643
▁instructions	-6644
Tu	-6645
oni	-6646
opy	-6647
phe	-6648
ums	-6649
▁11	-6650
▁ic	-6651
ULET	-6652
itor	-6653
▁180	-6654
▁Ren	-6655
▁Sch	-6656
▁tur	-6657
▁vac	-6658
ourse	-6659
▁Poly	-6660
▁fees	-6661
▁fest	-6662
Indeed	-6663
▁alike	-6664
▁carts	-6665
▁equip	-6666
▁intim	-6667
▁mixed	-6668
▁scrut	-6669
▁seren	-6670
▁steep	-6671
▁sweep	-6672
▁anchor	-6673
▁armour	-6674
▁detail	-6675
▁lovers	-6676
▁settle	-6677
▁sombre	-6678
▁CAPULET	-6679
▁Neither	-6680
▁breathe	-6681
▁readily	-6682
▁attended	-6683
▁captured	-6684
▁coursers	-6685
▁district	-6686
▁shepherd	-6687
▁Agamemnon	-6688
▁amazement	-6689
▁consisted	-6690
▁footsteps	-6691
▁strangely	-6692
▁compliance	-6693
▁descending	-6694
▁provisions	-6695
▁punishment	-6696
▁volunteers	-6697
▁established	-6698
▁indifferent	-6699
▁particulars	-6700
▁indifference	-6701
2)	-6702
awn	-6703
hip	-6704
kov	-6705
oes	-6706
JECT	-6707
UTEN	-6708
ford	-6709
four	-6710
shop	-6711
urst	-6712
▁Ste	-6713
piece	-6714
pring	-6715
stead	-6716
▁baby	-6717
▁bond	-6718
▁bord	-6719
▁corn	-6720
▁ecst	-6721
▁lift	-6722
▁roar	-6723
▁unre	-6724
headed	-6725
ington	-6726
rehens	-6727
uously	-6728
▁phant	-6729
▁abroad	-6730
▁admire	-6731
▁marble	-6732
▁masses	-6733
▁notary	-6734
▁online	-6735
▁anticip	-6736
▁bending	-6737
▁contact	-6738
▁disdain	-6739
▁emerged	-6740
▁valiant	-6741
▁Menelaus	-6742
▁abruptly	-6743
▁awaiting	-6744
▁comparis	-6745
▁describe	-6746
▁destined	-6747
▁elsewhere	-6748
▁magistrate	-6749
▁occasionally	-6750
edy	-6751
erl	-6752
evi	-6753
jud	-6754
▁AG	-6755
▁Pha	-6756
▁fol	-6757
▁gig	-6758
enses	-6759
ilson	-6760
oress	-6761
▁Shih	-6762
▁cult	-6763
▁Ilion	-6764
▁clerk	-6765
▁wives	-6766
▁absurd	-6767
▁commit	-6768
▁interm	-6769
▁refuge	-6770
▁retain	-6771
fortunes	-6772
▁Thrasym	-6773
▁William	-6774
▁dearest	-6775
▁leagues	-6776
▁returns	-6777
▁pressing	-6778
▁strongly	-6779
▁twilight	-6780
▁encounter	-6781
▁shuddered	-6782
▁accordance	-6783
▁tenderness	-6784
▁Information	-6785
▁recollection	-6786
—‘	-6787
Per	-6788
col	-6789
gic	-6790
inn	-6791
oph	-6792
see	-6793
BERG	-6794
arts	-6795
asty	-6796
quet	-6797
upon	-6798
▁dyn	-6799
▁hed	-6800
▁ner	-6801
▁sob	-6802
▁Sher	-6803
▁clos	-6804
ifying	-6805
▁GUTEN	-6806
▁brass	-6807
▁heaps	-6808
▁Wilson	-6809
▁endure	-6810
▁fairly	-6811
▁habits	-6812
▁patron	-6813
▁thresh	-6814
▁PROJECT	-6815
▁amiable	-6816
▁letting	-6817
▁sentine	-6818
▁wanting	-6819
▁confined	-6820
▁definite	-6821
▁disposed	-6822
▁opinions	-6823
▁politics	-6824
▁GUTENBERG	-6825
▁celestial	-6826
▁disappear	-6827
▁traversed	-6828
▁misfortunes	-6829
ea	-6830
,—“	-6831
aks	-6832
any	-6833
bon	-6834
gue	-6835
oft	-6836
unn	-6837
vre	-6838
▁ug	-6839
shot	-6840
some	-6841
▁ANY	-6842
▁Bez	-6843
▁wip	-6844
ATION	-6845
bbing	-6846
gthen	-6847
ppino	-6848
▁aven	-6849
▁dram	-6850
▁subs	-6851
dyssey	-6852
ourage	-6853
▁Black	-6854
▁balls	-6855
▁elbow	-6856
▁inval	-6857
▁Sunday	-6858
▁WARRAN	-6859
▁comput	-6860
▁format	-6861
▁perish	-6862
▁united	-6863
▁cottage	-6864
▁replies	-6865
▁website	-6866
▁Gardiner	-6867
▁Sherlock	-6868
▁insisted	-6869
▁displayed	-6870
▁inquiries	-6871
▁meanwhile	-6872
▁resembled	-6873
▁transport	-6874
▁Providence	-6875
▁containing	-6876
▁delightful	-6877
5,	-6878
ART	-6879
och	-6880
osp	-6881
hess	-6882
reci	-6883
▁jaw	-6884
▁ske	-6885
▁unw	-6886
▁Berg	-6887
▁July	-6888
▁silk	-6889
igneur	-6890
▁alter	-6891
▁cares	-6892
▁chose	-6893
▁dimin	-6894
▁toils	-6895
▁cities	-6896
▁insist	-6897
▁labour	-6898
▁passes	-6899
▁record	-6900
▁steady	-6901
ountered	-6902
▁battles	-6903
▁complex	-6904
▁embrace	-6905
▁limited	-6906
▁madness	-6907
▁resting	-6908
▁vessels	-6909
▁external	-6910
▁learning	-6911
▁realized	-6912
▁anxiously	-6913
▁commanded	-6914
▁discovery	-6915
▁threshold	-6916
▁enthusiasm	-6917
▁increasing	-6918
▁encountered	-6919
▁individuals	-6920
▁represented	-6921
sip	-6922
▁50	-6923
From	-6924
alog	-6925
iven	-6926
▁fox	-6927
rides	-6928
wenty	-6929
▁Wang	-6930
▁club	-6931
▁hers	-6932
▁jail	-6933
▁perf	-6934
▁rags	-6935
▁wars	-6936
akened	-6937
erlitz	-6938
ground	-6939
strous	-6940
▁dirty	-6941
▁serge	-6942
▁burden	-6943
▁coarse	-6944
▁haught	-6945
▁reject	-6946
▁repose	-6947
▁string	-6948
▁thence	-6949
▁Peppino	-6950
▁audible	-6951
▁earlier	-6952
▁harness	-6953
▁javelin	-6954
▁lightly	-6955
▁martial	-6956
▁results	-6957
▁ascended	-6958
▁ridiculous	-6959
2]	-6960
▁x	-6961
ERC	-6962
rah	-6963
yes	-6964
hole	-6965
ldom	-6966
rois	-6967
▁Bab	-6968
abeuf	-6969
uming	-6970
ítski	-6971
▁Full	-6972
▁Toto	-6973
▁deny	-6974
▁obli	-6975
▁pole	-6976
▁pour	-6977
▁rays	-6978
▁salt	-6979
▁warn	-6980
▁Grand	-6981
▁climb	-6982
▁disag	-6983
▁flour	-6984
▁greet	-6985
▁incon	-6986
▁insol	-6987
▁theat	-6988
▁Gretel	-6989
▁assume	-6990
▁attach	-6991
▁bestow	-6992
▁calmly	-6993
▁cellar	-6994
▁eleven	-6995
▁portra	-6996
▁prayed	-6997
▁speaks	-6998
▁inquire	-6999
▁leather	-7000
▁variety	-7001
▁departed	-7002
▁guardian	-7003
▁quantity	-7004
▁ventured	-7005
▁admirable	-7006
▁assembled	-7007
▁substance	-7008
▁celebrated	-7009
▁reputation	-7010
▁thoughtful	-7011
0]	-7012
1]	-7013
3)	-7014
EL	-7015
ii	-7016
HAT	-7017
izes	-7018
peak	-7019
▁Jac	-7020
▁aby	-7021
▁unl	-7022
▁wax	-7023
▁wre	-7024
Greek	-7025
mercy	-7026
uable	-7027
▁ange	-7028
▁rail	-7029
▁rubb	-7030
▁wash	-7031
aviour	-7032
▁boxes	-7033
▁disgu	-7034
▁ingen	-7035
▁slang	-7036
▁steam	-7037
▁torch	-7038
▁incomp	-7039
▁supply	-7040
▁discipl	-7041
▁flushed	-7042
▁glimpse	-7043
▁parties	-7044
▁printed	-7045
▁families	-7046
▁inspired	-7047
▁passions	-7048
▁situated	-7049
▁withdraw	-7050
▁Charlotte	-7051
▁Austerlitz	-7052
▁directions	-7053
▁performing	-7054
RA	-7055
▁-	-7056
lls	-7057
why	-7058
▁2.	-7059
URSE	-7060
lain	-7061
loqu	-7062
▁Oly	-7063
▁mas	-7064
eling	-7065
ribly	-7066
▁cave	-7067
▁glow	-7068
▁irre	-7069
▁onto	-7070
▁ruff	-7071
alming	-7072
everal	-7073
▁Among	-7074
▁NURSE	-7075
▁merit	-7076
▁stret	-7077
▁actual	-7078
▁bewild	-7079
▁dashed	-7080
▁driver	-7081
▁humble	-7082
▁lively	-7083
▁obeyed	-7084
▁seldom	-7085
▁survey	-7086
▁control	-7087
▁feather	-7088
▁machine	-7089
▁unusual	-7090
▁embraced	-7091
▁merchant	-7092
▁restrain	-7093
▁sensible	-7094
▁warriors	-7095
▁essential	-7096
▁multitude	-7097
▁tolerably	-7098
▁comparison	-7099
▁hesitation	-7100
▁overwhelmed	-7101
Ar	-7102
lac	-7103
▁Cy	-7104
▁Ku	-7105
outs	-7106
▁Bet	-7107
▁Hen	-7108
▁Shu	-7109
▁fog	-7110
▁nav	-7111
▁net	-7112
eenth	-7113
liest	-7114
▁Both	-7115
▁Comb	-7116
▁clam	-7117
▁damp	-7118
▁doom	-7119
▁gore	-7120
▁pile	-7121
▁runs	-7122
▁slee	-7123
▁trib	-7124
▁type	-7125
▁ugly	-7126
manuel	-7127
soever	-7128
▁Vampa	-7129
▁annoy	-7130
▁fiery	-7131
▁oppon	-7132
▁owing	-7133
▁risen	-7134
▁store	-7135
arnasse	-7136
ceiving	-7137
▁brings	-7138
▁permit	-7139
▁remove	-7140
▁resour	-7141
▁signed	-7142
▁wolves	-7143
ceptible	-7144
seigneur	-7145
standing	-7146
▁derived	-7147
▁pockets	-7148
▁whither	-7149
▁wrapped	-7150
urrection	-7151
▁decision	-7152
rehensible	-7153
▁Pontmercy	-7154
▁childhood	-7155
▁compelled	-7156
▁contented	-7157
▁establish	-7158
▁president	-7159
▁procureur	-7160
▁wondering	-7161
▁civilization	-7162
UN	-7163
xic	-7164
▁ON	-7165
▁SE	-7166
▁eg	-7167
mber	-7168
rels	-7169
wind	-7170
▁ach	-7171
▁bol	-7172
▁cyl	-7173
cause	-7174
heard	-7175
icken	-7176
▁Benn	-7177
▁Duke	-7178
▁Sign	-7179
▁betr	-7180
▁cock	-7181
Listen	-7182
▁Grant	-7183
▁Right	-7184
▁inher	-7185
ciences	-7186
▁People	-7187
▁collar	-7188
▁darted	-7189
▁notion	-7190
▁battery	-7191
▁comrade	-7192
▁killing	-7193
▁receipt	-7194
▁recover	-7195
▁refrain	-7196
▁elements	-7197
▁gigantic	-7198
▁landlord	-7199
▁persuade	-7200
▁recently	-7201
▁somebody	-7202
▁tranquil	-7203
▁hesitated	-7204
▁suspicion	-7205
▁applicable	-7206
▁spectacles	-7207
▁comfortable	-7208
▁Thrasymachus	-7209
lom	-7210
▁20	-7211
even	-7212
▁DIS	-7213
▁ine	-7214
▁orn	-7215
▁vap	-7216
bourn	-7217
▁brid	-7218
▁chem	-7219
▁puff	-7220
▁whip	-7221
▁woke	-7222
eferre	-7223
ension	-7224
itudes	-7225
ounted	-7226
▁Montp	-7227
▁Peter	-7228
▁ample	-7229
▁craft	-7230
▁depos	-7231
▁links	-7232
▁suite	-7233
▁Mabeuf	-7234
▁danced	-7235
▁inevit	-7236
▁mirror	-7237
▁musket	-7238
▁Atrides	-7239
▁cleared	-7240
▁conject	-7241
▁deliver	-7242
▁fatigue	-7243
▁seconds	-7244
▁breathed	-7245
▁devotion	-7246
▁medicine	-7247
▁replaced	-7248
▁revealed	-7249
▁troubles	-7250
▁Godalming	-7251
▁Longbourn	-7252
▁fortunate	-7253
▁messenger	-7254
▁monstrous	-7255
▁sentiment	-7256
▁Combeferre	-7257
▁additional	-7258
▁commission	-7259
▁Montparnasse	-7260
zh	-7261
hum	-7262
▁15	-7263
▁Iv	-7264
cont	-7265
grat	-7266
have	-7267
icks	-7268
lest	-7269
vity	-7270
▁Jun	-7271
▁aug	-7272
▁ink	-7273
▁san	-7274
break	-7275
▁MERC	-7276
▁boys	-7277
▁gets	-7278
▁gymn	-7279
▁jest	-7280
▁rapt	-7281
▁resc	-7282
▁soot	-7283
▁Baker	-7284
▁array	-7285
▁stuck	-7286
▁unity	-7287
utenant	-7288
▁esteem	-7289
▁hussar	-7290
▁mathem	-7291
▁safely	-7292
▁unwill	-7293
opyright	-7294
▁Duchess	-7295
▁belongs	-7296
▁capture	-7297
▁edition	-7298
▁illness	-7299
▁intense	-7300
▁somehow	-7301
▁studied	-7302
▁criminal	-7303
▁gracious	-7304
▁interior	-7305
▁offended	-7306
▁offering	-7307
▁properly	-7308
▁relative	-7309
▁solitude	-7310
▁squadron	-7311
▁construct	-7312
▁examining	-7313
▁moonlight	-7314
▁waistcoat	-7315
▁discussion	-7316
▁intelligent	-7317
▁significance	-7318
eh	-7319
son	-7320
éra	-7321
▁12	-7322
▁30	-7323
▁Py	-7324
olen	-7325
▁Owl	-7326
▁fil	-7327
▁vul	-7328
▁woo	-7329
stone	-7330
uince	-7331
unter	-7332
▁Bear	-7333
▁bark	-7334
angled	-7335
aptist	-7336
ighted	-7337
▁acted	-7338
▁aloft	-7339
▁apple	-7340
▁blank	-7341
▁beaten	-7342
▁bloody	-7343
▁brazen	-7344
▁deeper	-7345
▁harmon	-7346
▁joyful	-7347
▁reappe	-7348
▁changes	-7349
▁contrib	-7350
▁dismiss	-7351
▁guessed	-7352
▁harpoon	-7353
▁improve	-7354
▁leaders	-7355
▁lowered	-7356
▁species	-7357
▁swiftly	-7358
▁Cossacks	-7359
▁changing	-7360
▁complain	-7361
▁floating	-7362
▁wherever	-7363
▁boulevard	-7364
▁preparing	-7365
▁sensation	-7366
▁uncertain	-7367
▁acknowledge	-7368
▁reflections	-7369
;”	-7370
ét	-7371
His	-7372
aux	-7373
tes	-7374
▁13	-7375
aste	-7376
back	-7377
lets	-7378
odes	-7379
plex	-7380
▁Jim	-7381
▁apt	-7382
arged	-7383
ersed	-7384
guard	-7385
olded	-7386
pinay	-7387
▁Mond	-7388
▁craw	-7389
▁jury	-7390
▁noon	-7391
uincey	-7392
worthy	-7393
▁Iliad	-7394
▁Jonah	-7395
▁Whose	-7396
▁color	-7397
▁crest	-7398
▁giant	-7399
▁incap	-7400
▁ashore	-7401
▁hiding	-7402
▁yonder	-7403
ulations	-7404
▁Baptist	-7405
▁Because	-7406
▁Several	-7407
▁missing	-7408
▁panting	-7409
▁prolong	-7410
▁restore	-7411
▁smaller	-7412
▁upright	-7413
▁venture	-7414
▁incident	-7415
▁Therefore	-7416
▁available	-7417
▁equipment	-7418
▁fortnight	-7419
▁impatient	-7420
▁obscurity	-7421
▁tranquill	-7422
▁advantages	-7423
▁compassion	-7424
▁paragraphs	-7425
▁attentively	-7426
HT	-7427
ID	-7428
asm	-7429
isk	-7430
uet	-7431
▁ga	-7432
▁—_	-7433
aise	-7434
▁Far	-7435
▁Alas	-7436
▁blew	-7437
▁foes	-7438
▁hind	-7439
▁ling	-7440
▁pear	-7441
▁stom	-7442
▁surv	-7443
inking	-7444
▁Arist	-7445
▁Lizzy	-7446
▁couch	-7447
▁disin	-7448
▁frost	-7449
▁lands	-7450
▁legal	-7451
▁marks	-7452
▁scale	-7453
hearted	-7454
▁bodily	-7455
▁crimes	-7456
▁diplom	-7457
▁facing	-7458
▁lasted	-7459
▁lately	-7460
▁member	-7461
▁smiles	-7462
▁specul	-7463
▁tailor	-7464
▁traces	-7465
▁Barrois	-7466
▁attacks	-7467
▁benevol	-7468
▁ceiling	-7469
▁costume	-7470
▁degrees	-7471
▁despite	-7472
▁hunting	-7473
▁mothers	-7474
▁newspap	-7475
▁perplex	-7476
▁reverie	-7477
▁sinking	-7478
▁headlong	-7479
▁calculated	-7480
SS	-7481
CEN	-7482
ork	-7483
rim	-7484
Dear	-7485
Tell	-7486
mind	-7487
rant	-7488
rons	-7489
rust	-7490
uite	-7491
▁Eum	-7492
▁Gen	-7493
▁ech	-7494
▁ray	-7495
▁vel	-7496
uding	-7497
▁lone	-7498
▁mile	-7499
▁peep	-7500
▁rent	-7501
▁sobs	-7502
▁trip	-7503
alties	-7504
ranean	-7505
▁ivory	-7506
▁limit	-7507
▁resol	-7508
▁veins	-7509
ilities	-7510
▁autumn	-7511
▁borrow	-7512
▁chairs	-7513
▁exting	-7514
▁inward	-7515
▁tables	-7516
▁barrier	-7517
▁corners	-7518
▁demands	-7519
▁grasped	-7520
▁haughty	-7521
▁masters	-7522
▁methods	-7523
▁superst	-7524
▁wealthy	-7525
▁Emmanuel	-7526
▁creating	-7527
▁exercise	-7528
▁likewise	-7529
▁marrying	-7530
▁passages	-7531
▁reverend	-7532
▁defective	-7533
▁interview	-7534
▁repeating	-7535
▁exceedingly	-7536
▁generations	-7537
▁illuminated	-7538
Mr	-7539
OSE	-7540
íkh	-7541
▁Ha	-7542
aces	-7543
anga	-7544
emet	-7545
gest	-7546
mith	-7547
pass	-7548
▁hom	-7549
▁ton	-7550
atson	-7551
dides	-7552
ensed	-7553
forth	-7554
iring	-7555
oking	-7556
íkhon	-7557
▁Dorm	-7558
▁bath	-7559
▁dang	-7560
▁gift	-7561
▁owed	-7562
▁peop	-7563
▁pool	-7564
▁vest	-7565
ensity	-7566
resses	-7567
usions	-7568
▁Olymp	-7569
▁crept	-7570
▁dried	-7571
▁reass	-7572
▁track	-7573
Perhaps	-7574
ressing	-7575
▁charms	-7576
▁expend	-7577
▁punish	-7578
▁reckon	-7579
▁waking	-7580
▁Martian	-7581
▁Spanish	-7582
▁congrat	-7583
▁declare	-7584
▁discern	-7585
▁inquiry	-7586
▁message	-7587
▁shelter	-7588
▁stomach	-7589
▁tempest	-7590
▁announce	-7591
▁deprived	-7592
▁expenses	-7593
▁increase	-7594
▁irresist	-7595
▁sinister	-7596
▁sounding	-7597
▁answering	-7598
▁Wellington	-7599
▁invitation	-7600
▁sufferings	-7601
▁indescribable	-7602
OW	-7603
nds	-7604
pen	-7605
pul	-7606
two	-7607
▁EX	-7608
udge	-7609
▁Mur	-7610
▁ped	-7611
▁rav	-7612
actor	-7613
verty	-7614
▁Bild	-7615
▁Book	-7616
▁Pall	-7617
▁Poor	-7618
▁doll	-7619
▁eyeb	-7620
▁load	-7621
▁meal	-7622
icious	-7623
ponine	-7624
▁Kanga	-7625
▁altar	-7626
▁appet	-7627
▁cards	-7628
▁ninet	-7629
▁older	-7630
▁scorn	-7631
▁serfs	-7632
▁swarm	-7633
istered	-7634
▁Empire	-7635
▁Tíkhon	-7636
▁Virgil	-7637
▁Watson	-7638
▁assert	-7639
▁beasts	-7640
▁horrid	-7641
▁ladder	-7642
▁relate	-7643
▁awaited	-7644
▁draught	-7645
▁godlike	-7646
▁partner	-7647
▁poverty	-7648
▁privile	-7649
▁pulling	-7650
▁respond	-7651
▁conquest	-7652
▁favorite	-7653
▁gardener	-7654
▁intently	-7655
▁assurance	-7656
▁practical	-7657
▁reasoning	-7658
▁reference	-7659
▁simplicity	-7660
▁travelling	-7661
▁uneasiness	-7662
▁examination	-7663
▁commentators	-7664
ST	-7665
ré	-7666
wr	-7667
ITH	-7668
nes	-7669
sin	-7670
HICH	-7671
oard	-7672
tell	-7673
time	-7674
▁(2)	-7675
▁XII	-7676
▁Yao	-7677
▁dru	-7678
▁fow	-7679
cribe	-7680
urely	-7681
ánski	-7682
▁Moby	-7683
▁bind	-7684
▁dine	-7685
▁flut	-7686
▁joke	-7687
▁lane	-7688
▁mode	-7689
▁olig	-7690
▁scru	-7691
▁slip	-7692
▁Bened	-7693
▁Swift	-7694
▁banks	-7695
▁grows	-7696
▁guilt	-7697
▁ruins	-7698
certain	-7699
▁Morris	-7700
▁adored	-7701
▁catast	-7702
▁decide	-7703
▁market	-7704
▁overth	-7705
▁perpet	-7706
inations	-7707
▁Whether	-7708
▁candles	-7709
▁confirm	-7710
▁disease	-7711
▁flaming	-7712
▁seizing	-7713
▁Dormouse	-7714
▁contract	-7715
▁disagree	-7716
▁interval	-7717
▁noticing	-7718
▁oligarch	-7719
▁screamed	-7720
▁transfer	-7721
▁treacher	-7722
▁youthful	-7723
▁confident	-7724
▁confirmed	-7725
▁countries	-7726
▁determine	-7727
▁obtaining	-7728
▁authorities	-7729
▁distinction	-7730
▁difficulties	-7731
ok	-7732
ILL	-7733
REE	-7734
ste	-7735
upt	-7736
anim	-7737
maid	-7738
olet	-7739
▁Ass	-7740
▁cig	-7741
▁dar	-7742
▁lur	-7743
▁yon	-7744
igsen	-7745
oming	-7746
ucing	-7747
▁Hipp	-7748
▁THIS	-7749
▁bulw	-7750
▁hath	-7751
▁pine	-7752
▁rasc	-7753
Really	-7754
necess	-7755
▁Athen	-7756
▁Mamma	-7757
▁appar	-7758
▁beach	-7759
▁envel	-7760
▁hears	-7761
▁scept	-7762
▁seats	-7763
▁tones	-7764
▁Indian	-7765
▁cavern	-7766
▁chains	-7767
▁closer	-7768
▁doubts	-7769
▁female	-7770
▁guards	-7771
▁lesson	-7772
▁motive	-7773
▁accused	-7774
▁emperor	-7775
▁granted	-7776
▁impulse	-7777
▁redoubt	-7778
▁scrutin	-7779
▁skilful	-7780
▁warning	-7781
▁weapons	-7782
▁critical	-7783
▁exchange	-7784
▁graceful	-7785
▁indirect	-7786
▁investig	-7787
▁manifest	-7788
▁patience	-7789
▁payments	-7790
▁peaceful	-7791
▁sergeant	-7792
▁carpenter	-7793
▁extremity	-7794
▁happening	-7795
▁proceeding	-7796
▁affectionate	-7797
▁z	-7798
_.”	-7799
▁3.	-7800
▁LA	-7801
?...	-7802
shin	-7803
▁Acc	-7804
▁Dol	-7805
▁XVI	-7806
▁eag	-7807
▁nob	-7808
▁pig	-7809
▁tig	-7810
ifies	-7811
▁beds	-7812
▁bone	-7813
▁heir	-7814
▁lust	-7815
▁rude	-7816
▁spin	-7817
▁tiny	-7818
asions	-7819
▁Enter	-7820
▁abyss	-7821
▁eloqu	-7822
▁exhib	-7823
▁goods	-7824
▁hated	-7825
▁hotel	-7826
▁pitch	-7827
▁roads	-7828
▁thief	-7829
▁walks	-7830
chamber	-7831
▁advers	-7832
▁eighty	-7833
▁mouths	-7834
▁offers	-7835
▁stolen	-7836
▁subtle	-7837
▁valley	-7838
aneously	-7839
▁classes	-7840
▁encoura	-7841
▁springs	-7842
▁vaguely	-7843
▁Austrian	-7844
▁assembly	-7845
▁bleeding	-7846
▁youngest	-7847
▁Bennigsen	-7848
▁Speránski	-7849
▁behaviour	-7850
▁catastrop	-7851
▁innocence	-7852
▁supposing	-7853
▁swallowed	-7854
▁apartments	-7855
▁discipline	-7856
▁neighborhood	-7857
MIT	-7858
ada	-7859
igi	-7860
ilí	-7861
lix	-7862
six	-7863
▁14	-7864
Pooh	-7865
amin	-7866
boat	-7867
past	-7868
umps	-7869
▁Dav	-7870
▁Haw	-7871
▁Tow	-7872
▁XIV	-7873
▁nod	-7874
▁pub	-7875
force	-7876
lance	-7877
loire	-7878
occup	-7879
unken	-7880
▁Boss	-7881
▁XIII	-7882
▁chap	-7883
▁crou	-7884
▁deaf	-7885
▁isol	-7886
otions	-7887
porary	-7888
▁frank	-7889
▁impet	-7890
▁keeps	-7891
▁manly	-7892
▁snuff	-7893
▁upset	-7894
▁critic	-7895
▁instit	-7896
▁mental	-7897
▁pillow	-7898
▁renown	-7899
▁summit	-7900
▁tossed	-7901
▁victor	-7902
▁admired	-7903
▁depends	-7904
▁elapsed	-7905
▁endless	-7906
▁labours	-7907
▁marvell	-7908
▁princes	-7909
▁Magloire	-7910
▁accompany	-7911
▁centuries	-7912
▁community	-7913
▁complying	-7914
▁favourite	-7915
▁interpret	-7916
▁reception	-7917
▁religious	-7918
▁retreated	-7919
▁statement	-7920
▁suspended	-7921
▁breathless	-7922
▁characters	-7923
▁limitation	-7924
▁probability	-7925
▁arrangements	-7926
6,	-7927
Cap	-7928
pus	-7929
uts	-7930
arth	-7931
keys	-7932
pite	-7933
stri	-7934
árov	-7935
▁Ade	-7936
▁Arm	-7937
▁Ily	-7938
▁Tre	-7939
▁jun	-7940
▁loo	-7941
aging	-7942
alect	-7943
▁Give	-7944
▁Levi	-7945
▁WITH	-7946
▁enqu	-7947
▁lawy	-7948
▁mask	-7949
▁rein	-7950
▁stag	-7951
▁surm	-7952
idents	-7953
▁Death	-7954
▁Other	-7955
▁decor	-7956
▁deriv	-7957
▁eleph	-7958
▁indef	-7959
▁pluck	-7960
▁sends	-7961
▁tread	-7962
▁Indeed	-7963
▁Pallas	-7964
▁beggar	-7965
▁boldly	-7966
▁butter	-7967
▁fitted	-7968
▁missed	-7969
▁repuls	-7970
▁spears	-7971
▁towers	-7972
▁thanked	-7973
▁contains	-7974
▁frequent	-7975
▁helpless	-7976
▁mischief	-7977
▁pleasing	-7978
▁portrait	-7979
▁reminded	-7980
▁services	-7981
▁stopping	-7982
▁swimming	-7983
▁Grantaire	-7984
▁ascertain	-7985
▁conducted	-7986
▁narrative	-7987
▁suspected	-7988
▁unnatural	-7989
▁harpooneer	-7990
▁strengthen	-7991
▁contemplation	-7992
”;	-7993
asy	-7994
mas	-7995
rue	-7996
phew	-7997
ánov	-7998
▁ain	-7999
▁axe	-8000
▁stu	-8001
Uncle	-8002
ipped	-8003
▁Hell	-8004
▁Juno	-8005
▁Port	-8006
▁foam	-8007
▁hint	-8008
▁lawn	-8009
▁user	-8010
itious	-8011
return	-8012
▁accur	-8013
▁cemet	-8014
▁daily	-8015
▁exped	-8016
▁exter	-8017
▁lodge	-8018
▁trade	-8019
▁Bildad	-8020
▁elbows	-8021
▁nephew	-8022
▁planks	-8023
▁riches	-8024
▁roused	-8025
▁scenes	-8026
▁skelet	-8027
▁vulgar	-8028
▁adopted	-8029
▁charged	-8030
▁drunken	-8031
▁glances	-8032
▁glasses	-8033
▁grating	-8034
▁gravely	-8035
▁pistols	-8036
▁propose	-8037
▁sailing	-8038
▁timidly	-8039
▁attained	-8040
▁bitterly	-8041
▁combined	-8042
▁frowning	-8043
▁hurrying	-8044
▁measures	-8045
▁memories	-8046
▁rapidity	-8047
▁solemnly	-8048
▁certainty	-8049
▁exchanged	-8050
▁observing	-8051
▁physician	-8052
▁attributed	-8053
▁yourselves	-8054
▁necessarily	-8055
pel	-8056
Give	-8057
agon	-8058
apel	-8059
eyed	-8060
gain	-8061
hind	-8062
meil	-8063
usal	-8064
▁182	-8065
▁Nes	-8066
▁Roo	-8067
▁fie	-8068
▁sne	-8069
antus	-8070
dated	-8071
ordan	-8072
sters	-8073
▁jaws	-8074
ailing	-8075
liness	-8076
▁Adeim	-8077
▁Guard	-8078
▁Hills	-8079
▁Under	-8080
▁crush	-8081
▁dwarf	-8082
▁fount	-8083
▁funny	-8084
▁goose	-8085
▁holds	-8086
▁rival	-8087
fermeil	-8088
▁Corsic	-8089
▁Nether	-8090
▁denied	-8091
▁income	-8092
▁mutual	-8093
▁profit	-8094
▁sunset	-8095
▁swords	-8096
▁connect	-8097
▁enchant	-8098
▁enjoyed	-8099
▁enlight	-8100
▁exposed	-8101
▁forming	-8102
necessary	-8103
▁conceive	-8104
▁contents	-8105
▁counsels	-8106
▁domestic	-8107
▁hundreds	-8108
▁piercing	-8109
▁belonging	-8110
▁incapable	-8111
▁royalties	-8112
▁treatment	-8113
▁Adeimantus	-8114
▁derivative	-8115
▁downstairs	-8116
▁incessantly	-8117
▁tranquillity	-8118
▁communication	-8119
▁neighbourhood	-8120
);	-8121
aus	-8122
bin	-8123
iot	-8124
oir	-8125
▁Lo	-8126
▁Pi	-8127
olic	-8128
resa	-8129
▁200	-8130
▁Kur	-8131
▁lip	-8132
▁asks	-8133
▁gulf	-8134
▁meas	-8135
▁rele	-8136
ctions	-8137
minded	-8138
oubted	-8139
▁Simon	-8140
▁Venus	-8141
▁abode	-8142
▁belly	-8143
▁brisk	-8144
▁decre	-8145
▁dense	-8146
▁gleam	-8147
▁grain	-8148
▁hedge	-8149
▁heels	-8150
▁locks	-8151
▁paint	-8152
▁slope	-8153
▁surre	-8154
▁tales	-8155
henomen	-8156
▁Jordan	-8157
▁Prussi	-8158
▁entity	-8159
▁exempt	-8160
▁issued	-8161
▁jailer	-8162
▁murmur	-8163
▁velvet	-8164
▁washed	-8165
▁Bossuet	-8166
▁Hawkins	-8167
▁answers	-8168
▁balloon	-8169
▁complic	-8170
▁develop	-8171
▁examine	-8172
▁injured	-8173
▁invalid	-8174
▁ringing	-8175
▁slender	-8176
▁temples	-8177
▁foremost	-8178
▁perished	-8179
▁punished	-8180
▁relieved	-8181
▁sciences	-8182
▁startled	-8183
▁valuable	-8184
▁appearing	-8185
▁unwilling	-8186
▁politeness	-8187
▁successful	-8188
▁Montfermeil	-8189
▁Netherfield	-8190
▁dispositions	-8191
Or	-8192
.1.	-8193
.3,	-8194
.3.	-8195
OLI	-8196
lys	-8197
ril	-8198
uil	-8199
umm	-8200
▁16	-8201
AMAG	-8202
bury	-8203
oups	-8204
▁BEN	-8205
▁Bog	-8206
▁Has	-8207
▁Its	-8208
▁Mil	-8209
ILITY	-8210
MITED	-8211
arian	-8212
faced	-8213
ierce	-8214
urred	-8215
ushes	-8216
▁Last	-8217
▁dict	-8218
▁init	-8219
▁lake	-8220
▁push	-8221
Madame	-8222
▁DAMAG	-8223
▁Peleg	-8224
▁WHICH	-8225
▁admin	-8226
▁brows	-8227
▁dilig	-8228
▁infam	-8229
▁lucky	-8230
▁roast	-8231
▁screw	-8232
natured	-8233
ossible	-8234
ression	-8235
▁Juliet	-8236
▁cattle	-8237
▁dismay	-8238
▁donate	-8239
▁impert	-8240
▁joyous	-8241
▁landed	-8242
▁laying	-8243
▁occupy	-8244
▁prejud	-8245
▁region	-8246
▁LIMITED	-8247
▁benefit	-8248
▁chanced	-8249
▁closing	-8250
▁concept	-8251
▁dynasty	-8252
▁effects	-8253
▁opposed	-8254
▁selfish	-8255
▁sharply	-8256
▁arriving	-8257
▁awakened	-8258
▁commence	-8259
▁cylinder	-8260
▁dwelling	-8261
▁mathemat	-8262
▁phenomen	-8263
▁propriet	-8264
▁withdrew	-8265
▁democracy	-8266
▁obedience	-8267
▁redistrib	-8268
▁marvellous	-8269
▁replacement	-8270
▁consequently	-8271
▁constitution	-8272
▁unexpectedly	-8273
▁characteristic	-8274
Aye	-8275
May	-8276
aft	-8277
hor	-8278
ées	-8279
▁Bo	-8280
▁Im	-8281
emon	-8282
illa	-8283
nant	-8284
ouch	-8285
reen	-8286
sole	-8287
▁Med	-8288
▁Mel	-8289
▁PAR	-8290
▁Ros	-8291
▁Wol	-8292
Which	-8293
glass	-8294
▁Fort	-8295
▁Four	-8296
▁Holy	-8297
▁Past	-8298
▁liqu	-8299
▁neat	-8300
▁nigh	-8301
▁prim	-8302
▁yawn	-8303
spring	-8304
vítski	-8305
▁Kitty	-8306
▁Lucas	-8307
▁arrow	-8308
▁moder	-8309
▁Should	-8310
▁gallop	-8311
▁heroic	-8312
▁rubles	-8313
▁shakes	-8314
▁tragic	-8315
▁circles	-8316
▁darling	-8317
▁deceive	-8318
▁dialect	-8319
▁energet	-8320
▁exagger	-8321
▁expense	-8322
▁intoxic	-8323
▁landing	-8324
▁secrets	-8325
▁torture	-8326
▁tremend	-8327
▁betrayed	-8328
▁doubtful	-8329
▁feverish	-8330
▁interrog	-8331
▁majestic	-8332
▁reserved	-8333
▁surround	-8334
▁uttering	-8335
▁delivered	-8336
▁earnestly	-8337
▁intentions	-8338
▁retreating	-8339
▁exclamation	-8340
▁unnecessary	-8341
▁acknowledged	-8342
Dr	-8343
ACH	-8344
ols	-8345
sar	-8346
sect	-8347
▁Nay	-8348
▁Pip	-8349
▁atm	-8350
▁awe	-8351
▁bon	-8352
▁cub	-8353
▁pup	-8354
▁rud	-8355
ardly	-8356
shire	-8357
▁Turn	-8358
▁bars	-8359
▁foul	-8360
▁imit	-8361
▁leis	-8362
▁male	-8363
▁plot	-8364
▁slew	-8365
▁woes	-8366
▁Henry	-8367
▁exert	-8368
▁plant	-8369
▁skull	-8370
▁Signor	-8371
▁aboard	-8372
▁appeal	-8373
▁gloves	-8374
▁maiden	-8375
▁ponder	-8376
▁scheme	-8377
▁simult	-8378
▁terrif	-8379
▁transf	-8380
▁verses	-8381
▁waving	-8382
▁Between	-8383
▁Eumaeus	-8384
▁appreci	-8385
▁aroused	-8386
▁columns	-8387
▁conveni	-8388
▁counted	-8389
▁dungeon	-8390
▁grieved	-8391
▁harbour	-8392
▁peoples	-8393
▁puzzled	-8394
▁remorse	-8395
▁rightly	-8396
▁sadness	-8397
▁upwards	-8398
▁whereon	-8399
▁chapters	-8400
▁imperial	-8401
▁interpre	-8402
▁purchase	-8403
▁whalemen	-8404
▁Nesvítski	-8405
▁converted	-8406
▁senseless	-8407
▁contradict	-8408
▁perfection	-8409
▁protection	-8410
▁threatening	-8411
!)	-8412
2,	-8413
7,	-8414
Le	-8415
ár	-8416
IVE	-8417
▁_“	-8418
camp	-8419
gypt	-8420
quar	-8421
ulet	-8422
▁Cla	-8423
▁Lat	-8424
▁ath	-8425
▁cul	-8426
▁dus	-8427
▁hoo	-8428
▁oak	-8429
erson	-8430
ience	-8431
illar	-8432
unted	-8433
urned	-8434
▁Bill	-8435
▁Comp	-8436
▁Five	-8437
▁Pole	-8438
▁Tsar	-8439
▁sage	-8440
▁stif	-8441
eneath	-8442
▁Lives	-8443
▁diary	-8444
▁smart	-8445
▁swung	-8446
▁veget	-8447
▁waved	-8448
inently	-8449
▁artist	-8450
▁cheese	-8451
▁copied	-8452
▁divide	-8453
▁geomet	-8454
▁leaped	-8455
▁mantle	-8456
▁saving	-8457
▁stated	-8458
▁traged	-8459
▁warmth	-8460
▁Tydides	-8461
▁altered	-8462
▁artific	-8463
▁clasped	-8464
▁climbed	-8465
▁footman	-8466
▁happily	-8467
▁lessons	-8468
▁placing	-8469
▁realize	-8470
▁sixteen	-8471
▁tactics	-8472
▁cemetery	-8473
▁emotions	-8474
▁mourning	-8475
▁wondrous	-8476
▁Leviathan	-8477
▁Presently	-8478
▁gathering	-8479
▁spectacle	-8480
▁supported	-8481
▁treasures	-8482
▁tremendous	-8483
▁perspiration	-8484
OUR	-8485
ano	-8486
cif	-8487
lor	-8488
min	-8489
zel	-8490
▁4.	-8491
▁AS	-8492
Only	-8493
————	-8494
▁(1)	-8495
▁aye	-8496
▁sex	-8497
Every	-8498
might	-8499
shine	-8500
trees	-8501
▁Bilí	-8502
▁Supp	-8503
▁Véra	-8504
▁adjo	-8505
▁bees	-8506
▁bisc	-8507
▁boot	-8508
▁bowl	-8509
▁bund	-8510
▁goal	-8511
▁rows	-8512
ducing	-8513
rewell	-8514
teenth	-8515
▁await	-8516
▁banqu	-8517
▁burnt	-8518
▁demon	-8519
▁desol	-8520
▁hosts	-8521
▁panic	-8522
ouncing	-8523
▁Behind	-8524
▁atmosp	-8525
▁helmet	-8526
▁inches	-8527
▁insurg	-8528
▁lonely	-8529
▁remote	-8530
▁review	-8531
▁submit	-8532
▁watery	-8533
▁Beneath	-8534
▁Bilíbin	-8535
▁avoided	-8536
▁chances	-8537
▁contend	-8538
▁dispute	-8539
▁fathers	-8540
▁howling	-8541
▁partial	-8542
▁persist	-8543
▁reduced	-8544
▁torrent	-8545
▁conveyed	-8546
▁farewell	-8547
▁hospital	-8548
▁huntsman	-8549
▁indicate	-8550
▁apprehens	-8551
▁betrothed	-8552
▁introduce	-8553
▁occasions	-8554
▁persuaded	-8555
▁threatened	-8556
▁whatsoever	-8557
▁insurrection	-8558
▁respectfully	-8559
CK	-8560
ba	-8561
dam	-8562
top	-8563
▁Mc	-8564
OLIO	-8565
Phar	-8566
THER	-8567
acon	-8568
neas	-8569
rini	-8570
rise	-8571
umpt	-8572
▁Bus	-8573
▁NOT	-8574
▁flu	-8575
▁gos	-8576
▁tip	-8577
Count	-8578
aeans	-8579
ialog	-8580
icted	-8581
ieves	-8582
isive	-8583
▁Life	-8584
▁THAT	-8585
▁Turk	-8586
▁bulk	-8587
▁clut	-8588
▁echo	-8589
▁genu	-8590
▁hadn	-8591
▁idle	-8592
▁oxen	-8593
▁pink	-8594
▁tops	-8595
ndered	-8596
stones	-8597
▁blast	-8598
▁etern	-8599
▁livid	-8600
▁maxim	-8601
▁milit	-8602
▁mould	-8603
▁prost	-8604
▁reins	-8605
▁shine	-8606
▁shoot	-8607
▁sympt	-8608
Pharaon	-8609
▁amidst	-8610
▁coffee	-8611
▁corpor	-8612
▁cultiv	-8613
▁insign	-8614
▁jewell	-8615
▁rarely	-8616
▁recent	-8617
▁shores	-8618
▁vanity	-8619
oubtedly	-8620
quarters	-8621
▁elegant	-8622
▁prosper	-8623
▁pushing	-8624
▁staying	-8625
▁writers	-8626
▁attempts	-8627
▁retained	-8628
▁supplied	-8629
▁wandered	-8630
▁bewildered	-8631
▁foundation	-8632
▁Monseigneur	-8633
▁expectation	-8634
-1	-8635
ata	-8636
kóv	-8637
▁Id	-8638
fare	-8639
▁Bas	-8640
▁FRI	-8641
▁Squ	-8642
▁rhy	-8643
These	-8644
actly	-8645
ainte	-8646
count	-8647
culty	-8648
ifted	-8649
izard	-8650
ograp	-8651
▁Upon	-8652
▁ante	-8653
▁dies	-8654
▁file	-8655
▁gild	-8656
▁upro	-8657
velled	-8658
▁Luigi	-8659
▁Phaea	-8660
▁drift	-8661
▁eagle	-8662
▁fence	-8663
▁pages	-8664
▁pilot	-8665
▁rises	-8666
▁stamm	-8667
▁swine	-8668
▁towns	-8669
▁trunk	-8670
▁uncon	-8671
▁acting	-8672
▁bowing	-8673
▁chapel	-8674
▁deemed	-8675
▁exquis	-8676
▁oppose	-8677
▁rights	-8678
▁saddle	-8679
▁sprung	-8680
▁deserve	-8681
▁faculty	-8682
▁rewards	-8683
▁thicket	-8684
▁vehicle	-8685
mpossible	-8686
▁Achaeans	-8687
▁Pastrini	-8688
▁chariots	-8689
▁sunshine	-8690
▁Something	-8691
▁respected	-8692
▁venerable	-8693
▁compliment	-8694
▁precaution	-8695
▁suspicious	-8696
▁consolation	-8697
▁disagreeable	-8698
UE	-8699
va	-8700
yá	-8701
”,	-8702
Ant	-8703
UTI	-8704
VEN	-8705
bow	-8706
boy	-8707
did	-8708
urb	-8709
▁az	-8710
kers	-8711
oles	-8712
onor	-8713
orus	-8714
▁Out	-8715
▁Say	-8716
▁coo	-8717
Shall	-8718
alles	-8719
aterp	-8720
ppers	-8721
ulcan	-8722
▁Conf	-8723
▁chat	-8724
▁grin	-8725
▁puts	-8726
▁tort	-8727
gments	-8728
ocious	-8729
▁Petit	-8730
▁bayon	-8731
▁magic	-8732
▁salon	-8733
▁silly	-8734
▁vanqu	-8735
atively	-8736
▁amazed	-8737
▁bushes	-8738
▁images	-8739
▁reluct	-8740
▁scarce	-8741
▁viewed	-8742
▁dreamed	-8743
▁gallant	-8744
▁gallery	-8745
▁orderly	-8746
▁pretext	-8747
▁reverse	-8748
▁seeming	-8749
▁slumber	-8750
▁terrors	-8751
▁tonight	-8752
▁yielded	-8753
▁Parisian	-8754
▁accounts	-8755
▁dragging	-8756
▁eyebrows	-8757
▁referred	-8758
▁uncommon	-8759
▁Benedetto	-8760
▁arguments	-8761
▁battalion	-8762
▁dissatisf	-8763
▁instances	-8764
▁travelled	-8765
▁adventures	-8766
▁commanders	-8767
▁describing	-8768
▁forgetting	-8769
▁generation	-8770
▁procession	-8771
▁resistance	-8772
▁surprising	-8773
▁preparation	-8774
alv	-8775
ird	-8776
jac	-8777
omb	-8778
▁Gl	-8779
bled	-8780
inth	-8781
mast	-8782
▁Bru	-8783
▁Mei	-8784
▁dew	-8785
▁pir	-8786
▁tid	-8787
▁unh	-8788
Saint	-8789
VOLIO	-8790
astle	-8791
atáev	-8792
erald	-8793
hered	-8794
pulch	-8795
▁Hare	-8796
▁fits	-8797
▁fund	-8798
▁lads	-8799
▁nest	-8800
▁outl	-8801
▁serp	-8802
▁subd	-8803
haired	-8804
rating	-8805
terest	-8806
▁backs	-8807
▁chamb	-8808
▁costs	-8809
▁evils	-8810
▁folds	-8811
▁newly	-8812
▁patri	-8813
▁spell	-8814
▁spoil	-8815
▁trump	-8816
▁unite	-8817
iveness	-8818
▁affirm	-8819
▁amused	-8820
▁arrows	-8821
▁career	-8822
▁divers	-8823
▁groups	-8824
▁hasten	-8825
▁herald	-8826
▁hoping	-8827
▁jacket	-8828
▁sheets	-8829
umerable	-8830
▁carries	-8831
▁doorway	-8832
▁enthusi	-8833
▁sepulch	-8834
▁shortly	-8835
▁villain	-8836
▁winding	-8837
▁Alcinous	-8838
▁BENVOLIO	-8839
▁ambition	-8840
▁attorney	-8841
▁audience	-8842
▁converse	-8843
▁dazzling	-8844
▁elephant	-8845
▁fourteen	-8846
▁invented	-8847
▁marching	-8848
▁murdered	-8849
▁attacking	-8850
▁exquisite	-8851
▁falsehood	-8852
▁ferocious	-8853
▁offspring	-8854
▁tormented	-8855
▁wandering	-8856
▁favourable	-8857
▁instrument	-8858
▁maintained	-8859
▁occupation	-8860
▁respectful	-8861
▁triumphant	-8862
▁application	-8863
▁entertained	-8864
15	-8865
car	-8866
ipe	-8867
lat	-8868
rus	-8869
▁Ac	-8870
▁Co	-8871
Some	-8872
UTIO	-8873
bacc	-8874
lini	-8875
▁Str	-8876
▁XXI	-8877
▁hay	-8878
▁ult	-8879
erval	-8880
white	-8881
▁Bald	-8882
▁Cons	-8883
▁Love	-8884
▁bust	-8885
▁debt	-8886
▁duel	-8887
▁fath	-8888
▁tele	-8889
ements	-8890
▁analy	-8891
▁anter	-8892
▁azure	-8893
▁colle	-8894
▁embro	-8895
▁inexp	-8896
▁issue	-8897
▁paced	-8898
▁score	-8899
▁shaft	-8900
▁theft	-8901
▁Edward	-8902
▁bullet	-8903
▁induce	-8904
▁invari	-8905
▁judges	-8906
▁pallor	-8907
▁raging	-8908
▁slaves	-8909
▁subter	-8910
▁tavern	-8911
▁Capulet	-8912
▁Kurágin	-8913
▁blushed	-8914
▁doctors	-8915
▁extingu	-8916
▁fearing	-8917
▁grounds	-8918
▁marched	-8919
▁passers	-8920
▁whistle	-8921
▁Faubourg	-8922
▁Karatáev	-8923
▁MERCUTIO	-8924
▁daybreak	-8925
aterpillar	-8926
▁conceived	-8927
▁quivering	-8928
▁opposition	-8929
▁passionate	-8930
▁struggling	-8931
▁illustrious	-8932
▁impatiently	-8933
▁innumerable	-8934
▁introduction	-8935
▁establishment	-8936
TY	-8937
’,	-8938
’;	-8939
lle	-8940
nib	-8941
▁5.	-8942
▁Up	-8943
▁ma	-8944
balt	-8945
bons	-8946
cuse	-8947
fold	-8948
omte	-8949
only	-8950
pers	-8951
▁dug	-8952
▁enl	-8953
▁kne	-8954
▁oft	-8955
iated	-8956
istoc	-8957
lying	-8958
urday	-8959
urrah	-8960
▁Arab	-8961
▁None	-8962
▁conj	-8963
▁hook	-8964
▁lieu	-8965
ulties	-8966
unders	-8967
▁Egypt	-8968
▁Night	-8969
▁Think	-8970
▁blaze	-8971
▁exper	-8972
▁hasty	-8973
▁hovel	-8974
▁moist	-8975
▁nails	-8976
▁scent	-8977
▁schol	-8978
▁scrap	-8979
▁weigh	-8980
unities	-8981
▁Doctor	-8982
▁Except	-8983
▁Teresa	-8984
▁Vulcan	-8985
▁Wicked	-8986
▁coldly	-8987
▁compar	-8988
▁cursed	-8989
▁domain	-8990
▁pounds	-8991
▁resent	-8992
▁seamen	-8993
▁shower	-8994
▁sleepy	-8995
▁thrice	-8996
▁transp	-8997
▁Aristot	-8998
▁amusing	-8999
▁augment	-9000
▁dazzled	-9001
▁essence	-9002
▁flashed	-9003
▁largest	-9004
▁lifting	-9005
▁policem	-9006
▁sternly	-9007
▁thereby	-9008
▁warlike	-9009
▁backward	-9010
▁descends	-9011
▁retorted	-9012
▁adversary	-9013
▁objection	-9014
▁preferred	-9015
▁searching	-9016
▁spiritual	-9017
▁benefactor	-9018
▁insignific	-9019
▁penetrated	-9020
▁questioned	-9021
▁catastrophe	-9022
▁embarrassed	-9023
▁respectable	-9024
▁unconsciously	-9025
iac	-9026
rec	-9027
ser	-9028
▁ze	-9029
apse	-9030
cier	-9031
post	-9032
riel	-9033
▁Pel	-9034
▁Pyl	-9035
▁Tim	-9036
▁Use	-9037
▁bea	-9038
▁jet	-9039
▁les	-9040
▁lun	-9041
▁tin	-9042
olomy	-9043
uated	-9044
▁Does	-9045
▁Lake	-9046
▁Vien	-9047
▁bagg	-9048
▁beam	-9049
▁brut	-9050
▁gale	-9051
▁impl	-9052
▁owns	-9053
atives	-9054
velope	-9055
▁FRIAR	-9056
▁Green	-9057
▁darts	-9058
▁delir	-9059
▁dined	-9060
▁mates	-9061
▁ornam	-9062
▁petty	-9063
▁stove	-9064
▁thumb	-9065
nothing	-9066
olomyès	-9067
oration	-9068
▁Tybalt	-9069
▁ambush	-9070
▁fulfil	-9071
▁hearth	-9072
▁stable	-9073
▁tasted	-9074
▁theirs	-9075
▁tobacc	-9076
▁unseen	-9077
▁volume	-9078
▁Emerald	-9079
▁Olympus	-9080
▁baggage	-9081
▁bullets	-9082
▁commiss	-9083
▁dangers	-9084
▁discont	-9085
▁nowhere	-9086
▁subsequ	-9087
▁American	-9088
▁assassin	-9089
▁bulwarks	-9090
▁desirous	-9091
▁disaster	-9092
▁educated	-9093
▁groaning	-9094
▁paradise	-9095
▁preoccup	-9096
▁sentinel	-9097
▁suitable	-9098
▁wondered	-9099
▁Aristotle	-9100
▁customary	-9101
▁faculties	-9102
▁neglected	-9103
▁personage	-9104
▁philosoph	-9105
▁readiness	-9106
▁stationed	-9107
▁tradition	-9108
▁uncomfort	-9109
▁whiteness	-9110
▁atmosphere	-9111
▁impatience	-9112
▁perceiving	-9113
▁respecting	-9114
▁superiority	-9115
▁wretchedness	-9116
En	-9117
Car	-9118
bes	-9119
fit	-9120
jon	-9121
▁Bu	-9122
▁Ev	-9123
▁Tw	-9124
▁cu	-9125
anny	-9126
ping	-9127
▁Che	-9128
▁Jes	-9129
▁LAW	-9130
▁Lou	-9131
▁Sec	-9132
▁Tem	-9133
▁XXX	-9134
▁pad	-9135
▁shy	-9136
!...”	-9137
abled	-9138
allel	-9139
armes	-9140
itors	-9141
othes	-9142
spect	-9143
▁clad	-9144
▁duck	-9145
▁hare	-9146
▁hing	-9147
▁knot	-9148
▁matt	-9149
▁mend	-9150
▁mute	-9151
▁nail	-9152
▁sack	-9153
antime	-9154
herent	-9155
▁Ching	-9156
▁Mouse	-9157
▁clung	-9158
▁debts	-9159
▁defin	-9160
▁gamin	-9161
▁goats	-9162
▁holes	-9163
▁rolls	-9164
▁skirt	-9165
▁thigh	-9166
▁adding	-9167
▁condes	-9168
▁groans	-9169
▁indisp	-9170
▁longed	-9171
▁plains	-9172
▁precip	-9173
▁strate	-9174
▁termed	-9175
▁trench	-9176
▁weaker	-9177
▁Livesey	-9178
▁furnish	-9179
▁handful	-9180
▁lacking	-9181
▁phantom	-9182
▁regards	-9183
▁satisfy	-9184
▁thieves	-9185
▁twisted	-9186
▁warfare	-9187
▁Saturday	-9188
▁careless	-9189
▁catching	-9190
▁garments	-9191
▁lowering	-9192
▁skeleton	-9193
▁supplies	-9194
▁wrinkled	-9195
▁encourage	-9196
▁gymnastic	-9197
▁imitation	-9198
▁sparkling	-9199
▁detachment	-9200
▁expressing	-9201
▁grandmother	-9202
▁acquaintances	-9203
.”—	-9204
aet	-9205
noe	-9206
pef	-9207
rer	-9208
rol	-9209
xem	-9210
▁Ma	-9211
▁SA	-9212
▁eh	-9213
IGHT	-9214
dled	-9215
rawn	-9216
such	-9217
thus	-9218
▁fug	-9219
▁gas	-9220
▁rab	-9221
▁tub	-9222
Would	-9223
acing	-9224
aning	-9225
inged	-9226
lored	-9227
▁Pray	-9228
▁Tash	-9229
▁Vict	-9230
▁belt	-9231
▁dece	-9232
▁fasc	-9233
▁swam	-9234
▁symb	-9235
▁tack	-9236
alling	-9237
castle	-9238
encies	-9239
iation	-9240
▁Luxem	-9241
▁Place	-9242
▁abund	-9243
▁accus	-9244
▁faire	-9245
▁miser	-9246
▁novel	-9247
▁physi	-9248
▁poems	-9249
▁range	-9250
▁revel	-9251
▁roofs	-9252
▁twink	-9253
idently	-9254
▁advise	-9255
▁angels	-9256
▁bathed	-9257
▁bounds	-9258
▁bucket	-9259
▁carpet	-9260
▁flowed	-9261
▁growth	-9262
▁immort	-9263
▁indust	-9264
▁meadow	-9265
▁proofs	-9266
▁serene	-9267
▁sphere	-9268
▁Clerval	-9269
▁Spartan	-9270
▁blowing	-9271
▁dislike	-9272
▁drowned	-9273
▁endured	-9274
▁forests	-9275
▁glowing	-9276
▁gravity	-9277
▁guarded	-9278
▁planted	-9279
▁praying	-9280
▁stirred	-9281
▁tobacco	-9282
▁Although	-9283
▁Minister	-9284
▁allusion	-9285
▁consists	-9286
▁delicacy	-9287
▁dropping	-9288
▁joyfully	-9289
▁proposal	-9290
▁released	-9291
▁research	-9292
▁restrict	-9293
▁standard	-9294
▁attempted	-9295
▁divisions	-9296
▁enjoyment	-9297
▁regarding	-9298
▁spreading	-9299
▁stammered	-9300
▁Luxembourg	-9301
▁complicated	-9302
▁significant	-9303
▁disappointment	-9304
ARK	-9305
ROM	-9306
bar	-9307
iem	-9308
isl	-9309
pri	-9310
rep	-9311
▁DI	-9312
gian	-9313
gram	-9314
iday	-9315
ouss	-9316
rown	-9317
▁Art	-9318
▁Asi	-9319
▁Vol	-9320
▁lee	-9321
heads	-9322
three	-9323
▁Germ	-9324
▁cure	-9325
▁dame	-9326
▁econ	-9327
▁ejac	-9328
▁fist	-9329
▁sket	-9330
▁spar	-9331
▁void	-9332
affold	-9333
vation	-9334
▁Murat	-9335
▁Nurse	-9336
▁coron	-9337
▁draws	-9338
▁groom	-9339
▁moves	-9340
▁print	-9341
▁sable	-9342
▁songs	-9343
▁tiger	-9344
▁verse	-9345
▁vexed	-9346
▁Busoni	-9347
▁Ivánov	-9348
▁abomin	-9349
▁awaken	-9350
▁commer	-9351
▁ghosts	-9352
▁hammer	-9353
▁multip	-9354
▁paraly	-9355
▁provin	-9356
▁rubbed	-9357
▁scound	-9358
▁snatch	-9359
▁stores	-9360
▁stupef	-9361
▁temple	-9362
▁aristoc	-9363
▁assault	-9364
▁doubted	-9365
▁horrors	-9366
▁mortals	-9367
▁prophet	-9368
▁reigned	-9369
▁victims	-9370
▁Everyone	-9371
▁Meantime	-9372
▁covering	-9373
▁diamonds	-9374
▁frontier	-9375
▁replying	-9376
▁scaffold	-9377
▁smallest	-9378
▁sunlight	-9379
▁training	-9380
▁animation	-9381
▁attendant	-9382
▁whistling	-9383
▁lieutenant	-9384
▁sentiments	-9385
withstanding	-9386
1,	-9387
Pr	-9388
PAN	-9389
_,”	-9390
emn	-9391
oli	-9392
▁Hu	-9393
▁cy	-9394
▁ti	-9395
Jean	-9396
alus	-9397
cien	-9398
ieth	-9399
ilet	-9400
open	-9401
oubt	-9402
▁Add	-9403
▁IND	-9404
▁Thé	-9405
▁Yan	-9406
▁exh	-9407
▁map	-9408
▁tut	-9409
innie	-9410
lemen	-9411
mates	-9412
rates	-9413
sibly	-9414
▁Cape	-9415
▁Mery	-9416
▁cash	-9417
▁ench	-9418
▁ratt	-9419
▁wink	-9420
digger	-9421
upiter	-9422
▁Maire	-9423
▁blade	-9424
▁chill	-9425
▁entry	-9426
▁fiend	-9427
▁globe	-9428
▁inacc	-9429
▁incom	-9430
▁ineff	-9431
▁irreg	-9432
▁likes	-9433
▁louis	-9434
▁madam	-9435
▁union	-9436
atching	-9437
itively	-9438
ography	-9439
▁Brujon	-9440
▁Church	-9441
▁Fierce	-9442
▁Thetis	-9443
▁Vienna	-9444
▁coloss	-9445
▁errors	-9446
▁morrow	-9447
▁nerves	-9448
▁reveal	-9449
▁Charles	-9450
▁Meryton	-9451
▁bravest	-9452
▁genuine	-9453
▁inspire	-9454
▁refusal	-9455
▁serving	-9456
▁studies	-9457
▁survive	-9458
▁trained	-9459
▁afforded	-9460
▁capacity	-9461
▁defeated	-9462
▁relating	-9463
▁steadily	-9464
▁universe	-9465
▁vicinity	-9466
▁Frenchmen	-9467
▁assistant	-9468
▁enveloped	-9469
▁operation	-9470
▁penetrate	-9471
▁regiments	-9472
▁resembles	-9473
▁stockings	-9474
▁swineherd	-9475
▁indicating	-9476
▁references	-9477
▁temperance	-9478
▁Caterpillar	-9479
▁accordingly	-9480
▁irresistible	-9481
kó	-9482
vo	-9483
ád	-9484
OND	-9485
elf	-9486
has	-9487
mir	-9488
nut	-9489
oom	-9490
whe	-9491
▁1,	-9492
Pray	-9493
Shih	-9494
bear	-9495
bery	-9496
bors	-9497
riar	-9498
uary	-9499
wart	-9500
▁(3)	-9501
▁Leg	-9502
▁Pan	-9503
▁Ssu	-9504
▁lid	-9505
▁rug	-9506
▁voc	-9507
After	-9508
RENCE	-9509
cifix	-9510
icial	-9511
woman	-9512
▁Hold	-9513
▁desk	-9514
▁feed	-9515
▁gasp	-9516
▁lung	-9517
▁sets	-9518
icient	-9519
isting	-9520
▁Dutch	-9521
▁Frank	-9522
▁Trans	-9523
▁appla	-9524
▁bells	-9525
▁dares	-9526
▁dusty	-9527
▁rhyth	-9528
▁simpl	-9529
▁slack	-9530
▁stake	-9531
▁sweat	-9532
▁token	-9533
▁Winnie	-9534
▁faster	-9535
▁hounds	-9536
▁legisl	-9537
▁robbed	-9538
▁talent	-9539
▁visits	-9540
▁flatter	-9541
▁floated	-9542
▁frowned	-9543
▁healthy	-9544
▁seventh	-9545
▁sharing	-9546
▁washing	-9547
▁weighed	-9548
▁whoever	-9549
▁LAWRENCE	-9550
▁approved	-9551
▁cupboard	-9552
▁opponent	-9553
▁preceded	-9554
▁prioress	-9555
▁respects	-9556
▁shrugged	-9557
▁shutters	-9558
▁Baptistin	-9559
▁Tholomyès	-9560
▁adjoining	-9561
▁believing	-9562
▁decidedly	-9563
▁gendarmes	-9564
▁horseback	-9565
▁prevailed	-9566
▁sorrowful	-9567
▁witnesses	-9568
▁Phaeacians	-9569
▁battalions	-9570
▁expressive	-9571
▁inevitable	-9572
▁whispering	-9573
▁transferred	-9574
▁preparations	-9575
.7	-9576
IO	-9577
TE	-9578
uv	-9579
axe	-9580
cap	-9581
loc	-9582
low	-9583
ante	-9584
clay	-9585
ruck	-9586
shka	-9587
tego	-9588
uity	-9589
wing	-9590
▁Cal	-9591
▁anc	-9592
▁cli	-9593
▁ecc	-9594
▁lic	-9595
athed	-9596
ellow	-9597
icide	-9598
icpus	-9599
ratic	-9600
ursed	-9601
venue	-9602
▁Aunt	-9603
▁Dron	-9604
▁acts	-9605
▁agon	-9606
▁claw	-9607
▁cuir	-9608
▁intr	-9609
▁leap	-9610
▁lend	-9611
▁ment	-9612
▁mock	-9613
▁ramp	-9614
athieu	-9615
▁Catal	-9616
▁Could	-9617
▁Flint	-9618
▁House	-9619
▁abhor	-9620
▁brush	-9621
▁coinc	-9622
▁fairy	-9623
▁gross	-9624
▁rigid	-9625
▁sixth	-9626
▁stole	-9627
▁verge	-9628
▁widow	-9629
▁wiped	-9630
▁Champs	-9631
▁Govern	-9632
▁Pember	-9633
▁Philip	-9634
▁create	-9635
▁deform	-9636
▁gladly	-9637
▁humili	-9638
▁lawyer	-9639
▁learnt	-9640
▁livres	-9641
▁midday	-9642
▁nostri	-9643
▁patter	-9644
▁prohib	-9645
▁repent	-9646
▁rivers	-9647
▁strife	-9648
▁uproar	-9649
▁vainly	-9650
▁warned	-9651
▁Jupiter	-9652
▁approve	-9653
▁bandits	-9654
▁blazing	-9655
▁citizen	-9656
▁cracked	-9657
▁imposed	-9658
▁marshal	-9659
▁prudent	-9660
▁renewed	-9661
▁shields	-9662
▁solicit	-9663
▁stamped	-9664
▁thirsty	-9665
▁Whatever	-9666
▁abstract	-9667
▁bursting	-9668
▁dreaming	-9669
▁drooping	-9670
▁effected	-9671
▁elevated	-9672
▁envelope	-9673
▁grandeur	-9674
▁measured	-9675
▁monument	-9676
▁pressure	-9677
▁security	-9678
▁selected	-9679
▁speedily	-9680
▁stirring	-9681
▁terribly	-9682
▁vigorous	-9683
▁Pemberley	-9684
▁clearness	-9685
▁discussed	-9686
▁extending	-9687
▁forbidden	-9688
▁irregular	-9689
▁possesses	-9690
▁pretended	-9691
▁provision	-9692
▁purchased	-9693
▁responded	-9694
▁struggled	-9695
▁willingly	-9696
▁sensations	-9697
▁tumultuous	-9698
▁extinguished	-9699
▁restrictions	-9700
▁uncomfortable	-9701
▁simultaneously	-9702
.8	-9703
4,	-9704
UC	-9705
gi	-9706
vy	-9707
ARD	-9708
ULL	-9709
bru	-9710
eus	-9711
mor	-9712
upp	-9713
▁Af	-9714
▁PO	-9715
Wait	-9716
gone	-9717
hile	-9718
mony	-9719
opes	-9720
▁202	-9721
▁501	-9722
▁Ori	-9723
▁Wei	-9724
▁doc	-9725
▁nap	-9726
▁ram	-9727
Chang	-9728
ocles	-9729
▁Serv	-9730
▁bald	-9731
▁bids	-9732
▁buzz	-9733
▁fant	-9734
▁melt	-9735
▁reco	-9736
▁soup	-9737
▁usur	-9738
▁vile	-9739
estern	-9740
mighty	-9741
ridges	-9742
twenty	-9743
▁Horse	-9744
▁Smoll	-9745
▁Spain	-9746
▁adorn	-9747
▁discl	-9748
▁gover	-9749
▁knoll	-9750
▁pious	-9751
▁punct	-9752
▁swamp	-9753
▁tenth	-9754
▁Basque	-9755
▁antiqu	-9756
▁center	-9757
▁infall	-9758
▁lesser	-9759
▁louder	-9760
▁pacing	-9761
▁perman	-9762
▁quiver	-9763
▁revolt	-9764
▁roared	-9765
▁subord	-9766
▁territ	-9767
▁widest	-9768
▁balance	-9769
▁condemn	-9770
▁damages	-9771
▁descent	-9772
▁islands	-9773
▁mixture	-9774
▁Tashtego	-9775
▁appetite	-9776
▁articles	-9777
▁calmness	-9778
▁ceremony	-9779
▁civility	-9780
▁decisive	-9781
▁polished	-9782
▁proceeds	-9783
▁rattling	-9784
▁receives	-9785
▁vehicles	-9786
▁continual	-9787
▁hereafter	-9788
▁honorable	-9789
▁inhabited	-9790
▁carelessly	-9791
▁displeased	-9792
▁literature	-9793
▁operations	-9794
▁personally	-9795
▁victorious	-9796
▁Thénardiers	-9797
▁constructed	-9798
▁harpooneers	-9799
▁hospitality	-9800
▁embarrassment	-9801
11	-9802
IC	-9803
Ne	-9804
Po	-9805
ás	-9806
ADY	-9807
Was	-9808
iel	-9809
met	-9810
pow	-9811
uer	-9812
▁IS	-9813
cile	-9814
iate	-9815
▁Rom	-9816
▁cud	-9817
▁jer	-9818
▁vow	-9819
bably	-9820
comed	-9821
erved	-9822
ilion	-9823
inger	-9824
otism	-9825
plete	-9826
▁Amph	-9827
▁Gold	-9828
▁Pass	-9829
▁Toul	-9830
▁bite	-9831
▁bolt	-9832
▁goat	-9833
▁sore	-9834
▁suck	-9835
▁verd	-9836
actory	-9837
ifully	-9838
lysées	-9839
éevich	-9840
▁April	-9841
▁Laert	-9842
▁chall	-9843
▁exile	-9844
▁metal	-9845
▁unequ	-9846
legraph	-9847
renched	-9848
viously	-9849
▁analog	-9850
▁enters	-9851
▁expand	-9852
▁guided	-9853
▁hunted	-9854
▁injury	-9855
▁judged	-9856
▁knight	-9857
▁overfl	-9858
▁ribbon	-9859
▁statue	-9860
▁Justine	-9861
▁Royalty	-9862
▁ability	-9863
▁banquet	-9864
▁cuirass	-9865
▁defined	-9866
▁disgust	-9867
▁ecstasy	-9868
▁fancies	-9869
▁frantic	-9870
▁imitate	-9871
▁motives	-9872
▁railway	-9873
▁remembr	-9874
▁secured	-9875
▁seventy	-9876
▁spectre	-9877
▁Highness	-9878
▁anteroom	-9879
▁blessing	-9880
▁childish	-9881
▁curtains	-9882
▁explains	-9883
▁searched	-9884
▁secondly	-9885
▁unworthy	-9886
▁wrinkles	-9887
▁enchanted	-9888
▁intending	-9889
▁promoting	-9890
▁witnessed	-9891
▁apparition	-9892
▁commanding	-9893
▁excellence	-9894
▁insurgents	-9895
▁objections	-9896
▁resembling	-9897
▁independent	-9898
▁neighboring	-9899
▁resemblance	-9900
▁communicated	-9901
▁corresponding	-9902
?_	-9903
gon	-9904
had	-9905
lax	-9906
mid	-9907
▁AR	-9908
▁EB	-9909
▁[5	-9910
▁ah	-9911
▁	-9912
e	-9913
t	-9914
a	-9915
o	-9916
n	-9917
h	-9918
i	-9919
s	-9920
r	-9921
d	-9922
l	-9923
u	-9924
c	-9925
m	-9926
w	-9927
f	-9928
g	-9929
,	-9930
y	-9931
p	-9932
b	-9933
.	-9934
v	-9935
k	-9936
I	-9937
T	-9938
“	-9939
”	-9940
’	-9941
A	-9942
;	-9943
H	-9944
M	-9945
-	-9946
S	-9947
x	-9948
P	-9949
W	-9950
C	-9951
?	-9952
B	-9953
E	-9954
!	-9955
j	-9956
N	-9957
O	-9958
q	-9959
R	-9960
—	-9961
D	-9962
G	-9963
F	-9964
L	-9965
:	-9966
z	-9967
_	-9968
Y	-9969
V	-9970
J	-9971
‘	-9972
1	-9973
"	-9974
U	-9975
é	-9976
0	-9977
(	-9978
)	-9979
K	-9980
á	-9981
2	-9982
ó	-9983
[	-9984
]	-9985
3	-9986
í	-9987
5	-9988
8	-9989
X	-9990
4	-9991
*	-9992
è	-9993
6	-9994
7	-9995
